{"<|talk|>":0,"<|ax1|>":1,"<|ax2|>":2,"<|ax3|>":3,"<|ax4|>":4,"<|ax5|>":5,"<|ax6|>":6,"<|ax7|>":7,"<|ax8|>":8,"<|ax9|>":9,"!":10,"\"":11,"#":12,"$":13,"%":14,"&":15,"'":16,"(":17,")":18,"*":19,"+":20,",":21,"-":22,".":23,"/":24,"0":25,"1":26,"2":27,"3":28,"4":29,"5":30,"6":31,"7":32,"8":33,"9":34,":":35,";":36,"<":37,"=":38,">":39,"?":40,"@":41,"A":42,"B":43,"C":44,"D":45,"E":46,"F":47,"G":48,"H":49,"I":50,"J":51,"K":52,"L":53,"M":54,"N":55,"O":56,"P":57,"Q":58,"R":59,"S":60,"T":61,"U":62,"V":63,"W":64,"X":65,"Y":66,"Z":67,"[":68,"\\":69,"]":70,"^":71,"_":72,"`":73,"a":74,"b":75,"c":76,"d":77,"e":78,"f":79,"g":80,"h":81,"i":82,"j":83,"k":84,"l":85,"m":86,"n":87,"o":88,"p":89,"q":90,"r":91,"s":92,"t":93,"u":94,"v":95,"w":96,"x":97,"y":98,"z":99,"{":100,"|":101,"}":102,"~":103,"¡":104,"¢":105,"£":106,"¤":107,"¥":108,"¦":109,"§":110,"¨":111,"©":112,"ª":113,"«":114,"¬":115,"®":116,"¯":117,"°":118,"±":119,"²":120,"³":121,"´":122,"µ":123,"¶":124,"·":125,"¸":126,"¹":127,"º":128,"»":129,"¼":130,"½":131,"¾":132,"¿":133,"À":134,"Á":135,"Â":136,"Ã":137,"Ä":138,"Å":139,"Æ":140,"Ç":141,"È":142,"É":143,"Ê":144,"Ë":145,"Ì":146,"Í":147,"Î":148,"Ï":149,"Ð":150,"Ñ":151,"Ò":152,"Ó":153,"Ô":154,"Õ":155,"Ö":156,"×":157,"Ø":158,"Ù":159,"Ú":160,"Û":161,"Ü":162,"Ý":163,"Þ":164,"ß":165,"à":166,"á":167,"â":168,"ã":169,"ä":170,"å":171,"æ":172,"ç":173,"è":174,"é":175,"ê":176,"ë":177,"ì":178,"í":179,"î":180,"ï":181,"ð":182,"ñ":183,"ò":184,"ó":185,"ô":186,"õ":187,"ö":188,"÷":189,"ø":190,"ù":191,"ú":192,"û":193,"ü":194,"ý":195,"þ":196,"ÿ":197,"Ā":198,"ā":199,"Ă":200,"ă":201,"Ą":202,"ą":203,"Ć":204,"ć":205,"Ĉ":206,"ĉ":207,"Ċ":208,"ċ":209,"Č":210,"č":211,"Ď":212,"ď":213,"Đ":214,"đ":215,"Ē":216,"ē":217,"Ĕ":218,"ĕ":219,"Ė":220,"ė":221,"Ę":222,"ę":223,"Ě":224,"ě":225,"Ĝ":226,"ĝ":227,"Ğ":228,"ğ":229,"Ġ":230,"ġ":231,"Ģ":232,"ģ":233,"Ĥ":234,"ĥ":235,"Ħ":236,"ħ":237,"Ĩ":238,"ĩ":239,"Ī":240,"ī":241,"Ĭ":242,"ĭ":243,"Į":244,"į":245,"İ":246,"ı":247,"Ĳ":248,"ĳ":249,"Ĵ":250,"ĵ":251,"Ķ":252,"ķ":253,"ĸ":254,"Ĺ":255,"ĺ":256,"Ļ":257,"ļ":258,"Ľ":259,"ľ":260,"Ŀ":261,"ŀ":262,"Ł":263,"ł":264,"Ń":265,"de":266,"Ġe":267,"Ġde":268,"Ġl":269,"er":270,"os":271,"Ġc":272,"Ġp":273,"ar":274,"en":275,"Ġs":276,"an":277,"as":278,"on":279,"es":280,"Ġa":281,"or":282,"ci":283,"ue":284,"Ã³":285,"ad":286,"Ġm":287,"Ġla":288,"Ġen":289,"un":290,"in":291,"ÃŃ":292,"al":293,"re":294,"que":295,"te":296,"Ġel":297,"Ġt":298,"Ġque":299,"st":300,"do":301,"Ġh":302,"ab":303,"Ġun":304,"di":305,"ra":306,"Ġcon":307,"om":308,"Ġn":309,"Ã¡":310,"ic":311,"Ã³n":312,"Ã©":313,"Ġse":314,"ro":315,"Ġf":316,"ÃŃa":317,"to":318,"ri":319,"Ġv":320,"ti":321,"ĠE":322,"am":323,"Ġy":324,"Ġsu":325,"ĠC":326,"âĢ":327,"Ġes":328,"ta":329,"le":330,"ĠS":331,"ĠĊ":332,"ado":333,"la":334,"Ġlos":335,"ĠA":336,"Ġdel":337,"Ġ1":338,"ol":339,"âĢĶ":340,"ĠM":341,"ĠP":342,"ciÃ³n":343,"Ġal":344,"ĠL":345,"Ġo":346,"Ġre":347,"is":348,"Ġb":349,"Ġin":350,"Ġpar":351,"Ġpor":352,"Ġ=":353,"ien":354,"Ġcom":355,"Ġ'":356,"Ã±":357,"ch":358,"Ġest":359,"da":360,"il":361,"res":362,"Ġuna":363,"Ġg":364,"lo":365,"Ġno":366,"Ġdi":367,"ente":368,"qu":369,"Ġlas":370,"Ġ2":371,"Ġd":372,"Ġ(":373,"ent":374,"mp":375,"tu":376,"ĠD":377,"cu":378,"ada":379,"ĠR":380,"io":381,"aba":382,"ĠT":383,"ĠB":384,"el":385,"ig":386,"ran":387,"ter":388,"Ġcu":389,"ia":390,"tr":391,"ir":392,"ero":393,"dad":394,"Ġdes":395,"Ġlo":396,"ec":397,"Ãº":398,"Ã¡s":399,"us":400,"ie":401,"Ġpara":402,"ĠF":403,"Ġhab":404,"ist":405,"ier":406,"ma":407,"Ġme":408,"it":409,"cia":410,"ĠN":411,"ĠG":412,"go":413,"ando":414,"ica":415,"Ġ19":416,"ac":417,"Ġ20":418,"cion":419,"Ġcomo":420,"Ġpro":421,"bre":422,"gu":423,"ĠH":424,"se":425,"Ġle":426,"ĠJ":427,"Ġmu":428,"Ġex":429,"ĠI":430,"jo":431,"pa":432,"mo":433,"ca":434,"co":435,"ul":436,"era":437,"ant":438,"iz":439,"Ã¡n":440,"at":441,"dos":442,"ĠEn":443,"Ġto":444,"ĠmÃ¡s":445,"bi":446,"ru":447,"ĠV":448,"Ġ\"":449,"vi":450,"Ġpo":451,"ĠEl":452,"ĠâĢĶ":453,"Ġper":454,"Ġj":455,"Ġac":456,"ados":457,"tos":458,"pe":459,"tor":460,"vo":461,"ico":462,"Ġsi":463,"Ġi":464,"den":465,"ales":466,"Ġha":467,"ez":468,"Ã©n":469,"ur":470,"Â¿":471,"Ġqu":472,"Ġsus":473,"Ġte":474,"iÃ³n":475,"ce":476,"ĠU":477,"po":478,"Ġso":479,"ĠLa":480,"tra":481,"ici":482,"uer":483,"Ġan":484,"Ã©s":485,"Ġas":486,"ras":487,"ĠhabÃŃa":488,"ver":489,"idad":490,"um":491,"ĠO":492,"par":493,"ciones":494,"Ġser":495,"im":496,"em":497,"gun":498,"Ġfue":499,"Ġar":500,"ib":501,"ces":502,"amente":503,"tre":504,"ens":505,"ano":506,"ay":507,"ub":508,"rim":509,"der":510,"ante":511,"va":512,"tro":513,"ina":514,"ues":515,"los":516,"ora":517,"ida":518,"mente":519,"Ġ201":520,"00":521,"Ã±o":522,"Ġca":523,"Ġr":524,"ĠRe":525,"cho":526,"Ġten":527,"Ġres":528,"endo":529,"ÃŃan":530,"ara":531,"per":532,"Ġpero":533,"ido":534,"du":535,"me":536,"ĠEs":537,"des":538,"ten":539,"las":540,"fer":541,"na":542,"tar":543,"ana":544,"con":545,"gar":546,"za":547,"je":548,"Ġpr":549,"ambi":550,"ino":551,"Ġera":552,"Ġcas":553,"ga":554,"mb":555,"Ġab":556,"ador":557,"ios":558,"Ġpre":559,"ĠSe":560,"ĠÃ©":561,"Ãºn":562,"ĠK":563,"ĠEst":564,"Ġlle":565,"ve":566,"iento":567,"ĠAl":568,"tes":569,"les":570,"Ġ200":571,"Ġ3":572,"Ġob":573,"Ġmis":574,"ĠW":575,"ĠÂ¿":576,"aban":577,"ĠY":578,"enci":579,"Ã±os":580,"ĠUn":581,"antes":582,"lar":583,"adas":584,"Ġentre":585,"Ġcar":586,"tas":587,"Ġver":588,"ambiÃ©n":589,"lan":590,"Ġpas":591,"ones":592,"das":593,"Ġor":594,"Ġsin":595,"Ġsobre":596,"Ġhac":597,"encia":598,"Ġmi":599,"pu":600,"Ġprim":601,"aron":602,"he":603,"Ġsig":604,"ÃŃn":605,"Ġimp":606,"ĠIn":607,"ento":608,"Ġmo":609,"tÃ³":610,"Ġpa":611,"Ġpue":612,"ona":613,"Ġcomp":614,"Ġson":615,"asta":616,"ĠMar":617,"Ġfor":618,"tras":619,"Ã±a":620,"cl":621,"ista":622,"iv":623,"Ġsal":624,"iemp":625,"Ġcam":626,"Ġco":627,"Ġ*":628,"Ġcor":629,"Ġesc":630,"Ġtra":631,"Ġman":632,"tros":633,"ba":634,"man":635,"Ġmar":636,"Ġdos":637,"ĠtambiÃ©n":638,"ton":639,"ing":640,"Â¡":641,"gra":642,"olo":643,"ĠNo":644,"cha":645,"Ġtan":646,"',":647,"mos":648,"if":649,"Ġpe":650,"por":651,"ĠCh":652,"Ġof":653,"19":654,"ĠDe":655,"ja":656,"Ġdis":657,"ust":658,"ĠÃ©l":659,"aciÃ³n":660,"Ġinter":661,"Ġtr":662,"omb":663,"),":664,"Ġhasta":665,"tal":666,"ĠAn":667,"Ġcuando":668,"Ġam":669,"ĠCon":670,"no":671,"enta":672,"Ġpres":673,"âĢ¦":674,"Ġdu":675,"si":676,").":677,"icos":678,"Ġlu":679,"ĠAr":680,"âĢĶ.":681,"ena":682,"Ġap":683,"Ġtodo":684,"uel":685,"jos":686,"mas":687,"ros":688,"Ġll":689,"Ġba":690,"iÃ³":691,"Ġfin":692,"ores":693,"Ġ18":694,"Ġcab":695,"Ġestaba":696,"ob":697,"almente":698,"Ġcre":699,"Ġya":700,"Ġma":701,"ombre":702,"El":703,"Ġ4":704,"ĠaÃ±os":705,"dr":706,"cciÃ³n":707,"vers":708,"Ġpos":709,"qui":710,"ĠSan":711,"car":712,"Ġemp":713,"Ġmedi":714,"tura":715,"Ġna":716,"able":717,"Ġvez":718,"Ġhe":719,"udi":720,"min":721,"Ġgran":722,"Ġ199":723,"Ġella":724,"ario":725,"eo":726,"pos":727,"Ġdo":728,"Ġter":729,"ÃŃas":730,"til":731,"pon":732,"Ġdon":733,"Ġni":734,"son":735,"Ġfuer":736,"puÃ©s":737,"zo":738,"cional":739,"rante":740,"Ġmuy":741,"pi":742,"nos":743,"arse":744,"icas":745,"ven":746,"Ġeste":747,"Ġtien":748,"oci":749,"cip":750,"ĠSu":751,"xt":752,"jer":753,"ĠLos":754,"ÃŃs":755,"encias":756,"ren":757,"for":758,"âĢĶÂ¿":759,"Ġesta":760,"entes":761,"Ã©r":762,"unto":763,"Ġro":764,"iu":765,"et":766,"ĠUni":767,"ill":768,"oy":769,"quel":770,"gr":771,"Ġnue":772,"tado":773,"Ġvol":774,"No":775,"ior":776,"Ġdesde":777,"Ġmen":778,"Ġ5":779,"Qu":780,"cio":781,"eces":782,"..":783,"ĠMe":784,"Ġtu":785,"Ġmay":786,"oc":787,"ĠestÃ¡":788,"text":789,"all":790,"endof":791,"|>":792,"<|":793,"endoftext":794,"Ġcos":795,"tido":796,"ÃŃo":797,"itu":798,"eci":799,"Ġsab":800,"Ġdonde":801,"Ġparte":802,"Ġmun":803,"Ġdeci":804,"tir":805,"so":806,"Ġcer":807,"ita":808,"aliz":809,"iendo":810,"tiv":811,"ĠLe":812,"La":813,"Ġ0":814,"amos":815,"ĠCar":816,"gos":817,"rib":818,"ut":819,"Ġtiemp":820,"Ġch":821,"eros":822,"ard":823,"ĠPar":824,"Ġaquel":825,"Ġra":826,"lic":827,"diÃ³":828,"che":829,"Ġcan":830,"Ġus":831,"iera":832,"ris":833,"adre":834,"ral":835,"Ġcal":836,"Ġcol":837,"dÃŃa":838,"Ġhi":839,"uego":840,"Ġreg":841,"eb":842,"Ġdeb":843,"ferencias":844,"paÃ±":845,"ener":846,"ĠCom":847,"\".":848,"anz":849,"Ġher":850,"ug":851,"iudad":852,"Ġcons":853,"ĠNa":854,"Ġllam":855,"ud":856,"Ġtiempo":857,"Ġhacia":858,"Ġmismo":859,"Ġsol":860,"tivo":861,"eg":862,"Ġcual":863,"âĢĵ":864,"ias":865,"ĠdespuÃ©s":866,"20":867,"ĠquÃ©":868,"fici":869,"ctor":870,"tica":871,"Ġsegu":872,"Ġhacer":873,"Ġbien":874,"Ġexp":875,"mi":876,"ientras":877,"cas":878,"and":879,"Ġdej":880,"ĠX":881,"Ġfu":882,"gen":883,"Ġ198":884,"Ġcontra":885,"Ġalgun":886,"ion":887,"oria":888,"laciÃ³n":889,"ĠÃ":890,"peci":891,"oso":892,"lti":893,"stru":894,"tin":895,"Ġmir":896,"ort":897,"ea":898,"Ġ6":899,"ed":900,"Ġtraba":901,"itar":902,"ĠasÃŃ":903,"ĠseÃ±":904,"gan":905,"Ġapar":906,"Ġuno":907,"ĠtenÃŃa":908,"lica":909,"ich":910,"Ġprop":911,"Ġprin":912,"Ġyo":913,"cos":914,"vis":915,"ĠÂ¡":916,"Ġpol":917,"ĠMa":918,"ĠÃ¡":919,"Ġdurante":920,"ll":921,"Ġesp":922,"argo":923,"'.":924,"Ġllev":925,"gua":926,"Ġad":927,"ase":928,"ala":929,"uso":930,"igu":931,"illa":932,"eza":933,"Ġincl":934,"ĠaÃ±o":935,"Ġtodos":936,"ge":937,"Ġexter":938,"miento":939,"cer":940,"Ġmon":941,"ĠPor":942,"id":943,"ine":944,"\",":945,"unque":946,"ĠDes":947,"Ġah":948,"uen":949,"Ġdist":950,"eron":951,"Ġprincip":952,"Ġpens":953,"Ġvida":954,"iden":955,"Ġese":956,"cur":957,"Ġvar":958,"ord":959,"Ġrep":960,"Ġmej":961,"dijo":962,"graf":963,"esti":964,"Ġfr":965,"Ġciudad":966,"Ġemb":967,"dido":968,"tico":969,"Ġantes":970,"iente":971,"Ġforma":972,"riÃ³":973,"Ġsido":974,"Ġlugar":975,"Ġlib":976,"ĠCo":977,"ĠPero":978,"Ġfun":979,"anos":980,"Ġprodu":981,"Ġencon":982,"ĠFran":983,"dem":984,"entos":985,"Ġmujer":986,"Ġespeci":987,"Ġalgo":988,"iciÃ³n":989,"Ġmientras":990,"Ġtiene":991,"Ġve":992,"ap":993,"Ãºlti":994,"Ġmom":995,"ĠZ":996,"Ġ7":997,"fec":998,"ĠTo":999,"Ã³lo":1000,"Ġden":1001,"ble":1002,"erÃŃa":1003,"ne":1004,"cias":1005,"Ġvi":1006,"ĠReferencias":1007,"En":1008,"Ġestado":1009,"amiento":1010,"Ġtras":1011,"amil":1012,"Ġmayor":1013,"alidad":1014,"Ġpuede":1015,"Ġk":1016,"ÃŃcu":1017,"Ġtran":1018,"Ġencontr":1019,"Ġhay":1020,"dose":1021,"uy":1022,"Ġotro":1023,"chos":1024,"gÃºn":1025,"Ġqued":1026,"tiÃ³":1027,"Ġcasa":1028,"paÃ±a":1029,"arÃŃa":1030,"ĠLas":1031,"ĠPa":1032,"tonces":1033,"Ġven":1034,"oz":1035,"emos":1036,"Ġpal":1037,"Ġparec":1038,"Ġ15":1039,"Ġtoda":1040,"Ġ197":1041,"Ġ10":1042,"Ġti":1043,"Ġeso":1044,"Ġhist":1045,"ĠdÃŃa":1046,"ĠÃºlti":1047,"Ġnada":1048,"pre":1049,"Ġporque":1050,"ĠLo":1051,"ĠLu":1052,"adores":1053,"Ġprimera":1054,"laces":1055,"ern":1056,"rig":1057,"lÃŃ":1058,"iste":1059,"cuent":1060,"li":1061,"Ġtres":1062,"Ġ8":1063,"Ġexternos":1064,"Ġbar":1065,"Ġcap":1066,"dia":1067,"Ġpues":1068,"Ġprimer":1069,"ura":1070,"Ġotros":1071,"rist":1072,"Ġpes":1073,"tiva":1074,"Ġinv":1075,"Ġpoco":1076,"av":1077,"ible":1078,"Ġhombre":1079,"II":1080,"Ã³mo":1081,"grafÃŃa":1082,"cen":1083,"Ġotra":1084,"Ġreci":1085,"atro":1086,"Ġgu":1087,"bol":1088,"Ãºs":1089,"Ġlleg":1090,"Ġeran":1091,"Ġau":1092,"ot":1093,"Ġencuent":1094,"Ġmomento":1095,"Ġtom":1096,"Ġperson":1097,"lub":1098,"stitu":1099,"ber":1100,"Ġmuer":1101,"ieron":1102,"teg":1103,"Ġnos":1104,"Ġentr":1105,"ĠCu":1106,"Ġpla":1107,"Ġsolo":1108,"Ġ9":1109,"Ġcada":1110,"uro":1111,"ito":1112,"ril":1113,"Ġojos":1114,"Ġquien":1115,"Ġsegun":1116,"ĠTe":1117,"Ġgru":1118,"Ġtemp":1119,"quÃŃ":1120,"iempre":1121,"iones":1122,"Ãºb":1123,"sa":1124,"Ġsigu":1125,"Ġ17":1126,"Ġnombre":1127,"izo":1128,"Ġsen":1129,"Ġequi":1130,"erv":1131,"Ã³r":1132,"orm":1133,"Ġpi":1134,"Ġtanto":1135,"ĠhabÃŃan":1136,"Ġdire":1137,"ctu":1138,"Ġparti":1139,"ital":1140,"rado":1141,"Ġsiglo":1142,"ĠAs":1143,"Ġhomb":1144,"cul":1145,"lig":1146,"ĠCa":1147,"Ġrec":1148,"vin":1149,"Ġmejor":1150,"Ġfamil":1151,"Ġale":1152,"Ġpuer":1153,"Ġcent":1154,"Ġli":1155,"Ġtar":1156,"Ġpel":1157,"Ġaunque":1158,"dor":1159,"Ġu":1160,"viÃ³":1161,"Ġedi":1162,"embre":1163,"ĠEnlaces":1164,"Ġconf":1165,"Ġprof":1166,"Ġda":1167,"ĠCam":1168,"Ġmucho":1169,"ĠSi":1170,"ang":1171,"Ġpeque":1172,"Ġunos":1173,"Ġmil":1174,"Ġdecir":1175,"ĠsÃŃ":1176,"ancia":1177,"tion":1178,"quier":1179,"Ġellos":1180,"Ġmenos":1181,"Ġ16":1182,"tic":1183,"Ġneces":1184,"osa":1185,"lor":1186,"Ġgener":1187,"ire":1188,"Ġconoci":1189,"Ġhecho":1190,"Ġir":1191,"th":1192,"200":1193,"ĠGu":1194,"Ġmes":1195,"Ġhan":1196,"Ġmundo":1197,"Ġsuper":1198,"sta":1199,"...":1200,"ya":1201,"ip":1202,"Ġmal":1203,"Ġhaber":1204,"ĠEspaÃ±a":1205,"taba":1206,"ĠPer":1207,"Ġesa":1208,"dera":1209,"Ġpob":1210,"Ġ196":1211,"gÃŃa":1212,"cre":1213,"Ġ12":1214,"ĠRo":1215,"âĢĶÂ¡":1216,"Ġinf":1217,"Ġahora":1218,"mar":1219,"Ġmin":1220,"Ġcabeza":1221,"ĠBar":1222,"rÃŃa":1223,"ĠJo":1224,"Ġnuevo":1225,"ientos":1226,"ĠJu":1227,"pen":1228,"Ġestudi":1229,"Ġbajo":1230,"ismo":1231,"ted":1232,"Ġru":1233,"Ġsent":1234,"Ġfueron":1235,"Ġnues":1236,"Ã¡ndo":1237,"Ġmano":1238,"ĠUnidos":1239,"Ġsiempre":1240,"ciÃ³":1241,"ĠEstados":1242,"demÃ¡s":1243,"QuÃ©":1244,"orn":1245,"atal":1246,"ĠMon":1247,"ell":1248,"ular":1249,"ep":1250,"ĠPro":1251,"Ġacu":1252,"Ġimport":1253,"ĠCas":1254,"pues":1255,"Ġles":1256,"Ġactu":1257,"ĠUnivers":1258,"Ġpers":1259,"Ġing":1260,"Ã©c":1261,"Ġindi":1262,"Ġsue":1263,"orte":1264,"igo":1265,"icip":1266,"Ġsub":1267,"jas":1268,"Ġjunto":1269,"Ġbas":1270,"Ġ11":1271,"arro":1272,"Ġbo":1273,"uerra":1274,"Ġtrans":1275,"ĠsÃ³lo":1276,"unca":1277,"Ġentonces":1278,"Ġpregun":1279,"Ġcuer":1280,"idades":1281,"omo":1282,"cil":1283,"cial":1284,"ene":1285,"can":1286,"ag":1287,"ĠpodÃŃa":1288,"taciÃ³n":1289,"Ġz":1290,"cal":1291,"Ġpie":1292,"Ġpadre":1293,"cÃ³":1294,"Âº":1295,"istas":1296,"Ġne":1297,"Ġpl":1298,"Ġint":1299,"Ġesper":1300,"Ġescri":1301,"pec":1302,"Ġembargo":1303,"olu":1304,"ĠmÃŃ":1305,"terior":1306,"Ġthe":1307,"dio":1308,"chas":1309,"Ġofici":1310,"Ġtal":1311,"Ġluego":1312,"Ġhum":1313,"yo":1314,"Ġban":1315,"drÃŃa":1316,"Ġaf":1317,"Ġhizo":1318,"Ġrealiz":1319,"orÃŃa":1320,"zÃ³n":1321,"ile":1322,"Ġval":1323,"dades":1324,"Ġgan":1325,"ck":1326,"cÃŃa":1327,"ian":1328,"Es":1329,"Ġpu":1330,"ama":1331,"Ġay":1332,"ierno":1333,"Ġ13":1334,"tamente":1335,"Ġcul":1336,"Ġdijo":1337,"Ġ14":1338,"ĠpolÃŃ":1339,"Ġdest":1340,"cel":1341,"Ġcin":1342,"cri":1343,"iso":1344,"Ġante":1345,"Ġfal":1346,"ierra":1347,"est":1348,"Ġos":1349,"ik":1350,"px":1351,"ĠÃºn":1352,"siÃ³n":1353,"ial":1354,"Ġpalab":1355,"Ġjun":1356,"ĠJos":1357,"ome":1358,"Ġins":1359,"enz":1360,"Ġanti":1361,"bo":1362,"Ġri":1363,"18":1364,"Ġlado":1365,"ierto":1366,"ha":1367,"Ġ-":1368,"ĠpaÃŃs":1369,"ilo":1370,"Ġand":1371,"rÃ³":1372,"Ġplan":1373,"ÃŃst":1374,"Ġ00":1375,"ĠSin":1376,"Ġdef":1377,"ĠAm":1378,"ĠAle":1379,"vÃŃa":1380,"Ġ**":1381,"Ã¡ndose":1382,"Ġcomple":1383,"ĠaquÃŃ":1384,"Ġmie":1385,"Ġnoche":1386,"ĠCol":1387,"eno":1388,"Ġvoz":1389,"Ġpon":1390,"Se":1391,"uela":1392,"Ġeje":1393,"Ġvis":1394,"Ġhub":1395,"Ġfuera":1396,"Ġresul":1397,"Ġcontin":1398,"oma":1399,"Ġcomun":1400,"ĠMan":1401,"idos":1402,"tera":1403,"ÃŃtu":1404,"Ġpoder":1405,"Ġgra":1406,"inas":1407,"Ġcuenta":1408,"Ġvuel":1409,"Ã³m":1410,"Ġconv":1411,"Ġpub":1412,"zas":1413,"ĠPo":1414,"Ġtodas":1415,"ima":1416,"Ãºm":1417,"cep":1418,"llo":1419,"Ġgob":1420,"jar":1421,"rar":1422,"Por":1423,"tad":1424,"Ġestar":1425,"Ġesto":1426,"ĠÃģ":1427,"bido":1428,"Ġconsi":1429,"fic":1430,"ĠallÃŃ":1431,"ensa":1432,"ria":1433,"ves":1434,"Ġconstru":1435,"Ġcasi":1436,"Ġhor":1437,"Ġhace":1438,"Ġop":1439,"zos":1440,"cido":1441,"ĠMun":1442,"ron":1443,"tiliz":1444,"arios":1445,"lu":1446,"Ġ195":1447,"Ġrev":1448,"Ġestu":1449,"Ġotras":1450,"cado":1451,"Ġfamilia":1452,"Ġsitu":1453,"Ġfran":1454,"Ġnov":1455,"Ġrela":1456,"ĠClub":1457,"ĠCor":1458,"Ġveces":1459,"Ġdirig":1460,"Ġconse":1461,"Ġhombres":1462,"gent":1463,"Ã¡r":1464,"ĠseÃ±or":1465,"Ġbus":1466,"yec":1467,"ho":1468,"Ġorig":1469,"tivos":1470,"erdo":1471,"Ġamb":1472,"dado":1473,"ques":1474,"ĠdÃŃas":1475,"Ġfinal":1476,"Ġ194":1477,"Ġtarde":1478,"Ġide":1479,"Ġpersona":1480,"Ġva":1481,"Ġev":1482,"Ġpuerta":1483,"rid":1484,"cis":1485,"ĠBa":1486,"Ġmisma":1487,"ĠSal":1488,"Ġref":1489,"Ġacer":1490,"aria":1491,"ies":1492,"gas":1493,"ono":1494,"biÃ³":1495,"ĠPe":1496,"ific":1497,"Ġdifer":1498,"Ġnunca":1499,"gado":1500,"Ã¡g":1501,"Ġag":1502,"visiÃ³n":1503,"icaciÃ³n":1504,"tural":1505,"Ġmat":1506,"dida":1507,"Ġol":1508,"ĠVal":1509,"Ġutiliz":1510,"The":1511,"Ġsac":1512,"201":1513,"fr":1514,"Ġviv":1515,"ĠMo":1516,"Ġmadre":1517,"Ġclas":1518,"cios":1519,"ex":1520,"ke":1521,"Ġsur":1522,"isto":1523,"Ġjo":1524,"fe":1525,"Ġpersonas":1526,"vil":1527,"Ġce":1528,"Ġlev":1529,"Ġdar":1530,"mpl":1531,"raciÃ³n":1532,"ĠcÃ³mo":1533,"Ġtrabajo":1534,"tis":1535,"Ġ,":1536,"ĠOr":1537,"Ġ:":1538,"Ġinst":1539,"Ġmunicip":1540,"ĠNacional":1541,"tan":1542,"iga":1543,"rero":1544,"iÃ©n":1545,"Ġblan":1546,"orada":1547,"Ġgrupo":1548,"Ġbuen":1549,"ĠDu":1550,"Ġtor":1551,"Ġju":1552,"ĠPre":1553,"Ġhistoria":1554,"ĠSo":1555,"ĠThe":1556,"ry":1557,"forma":1558,"ĠMÃ©":1559,"Ã¡l":1560,"Ġcosas":1561,"und":1562,"Ġmanos":1563,"Ġllegar":1564,"jes":1565,"ĠFue":1566,"pas":1567,"paÃ±ol":1568,"eta":1569,"Ġrepres":1570,"Ġgol":1571,"Ġtener":1572,"Ġorden":1573,"Est":1574,"inos":1575,"tur":1576,"ĠUniversidad":1577,"ĠQu":1578,"ĠJuan":1579,"amento":1580,"Ġ193":1581,"ĠestÃ¡n":1582,"Ġencuentra":1583,"Ġ2010":1584,"ĠpoblaciÃ³n":1585,"del":1586,"Ġcr":1587,"Ġtotal":1588,"ond":1589,"Ġrecon":1590,"Ġgeneral":1591,"Ġmedio":1592,"ĠRa":1593,"De":1594,"Ġlanz":1595,"cub":1596,"ĠMad":1597,"Ġpri":1598,"chi":1599,"tio":1600,"Ġagua":1601,"ĠYo":1602,"Ġmor":1603,"ilidad":1604,"hi":1605,"Ġjug":1606,"cto":1607,"Ġform":1608,"ĠnÃºm":1609,"Ġdesarro":1610,"Ġsino":1611,"Ġcuatro":1612,"tados":1613,"ulio":1614,"iado":1615,"pti":1616,"arlo":1617,"ese":1618,"ĠCal":1619,"rera":1620,"Ġdici":1621,"ĠSa":1622,"Ġdere":1623,"Ġempez":1624,"Ġusted":1625,"Ġcuerpo":1626,"Ġextra":1627,"tel":1628,"ĠNue":1629,"illo":1630,"Ġgri":1631,"Ġdesa":1632,"Me":1633,"ĠNe":1634,"ment":1635,"rando":1636,"Ġcomenz":1637,"Ġbra":1638,"ruz":1639,"ts":1640,"Ã¼":1641,"ĠBo":1642,"Ġdio":1643,"mana":1644,"Ã¡f":1645,"ÃŃtulo":1646,"Ġapo":1647,"Ã³g":1648,"Ġestaban":1649,"ong":1650,"ĠGran":1651,"tegorÃŃa":1652,"Ġpunto":1653,"Ġ25":1654,"Ġmanera":1655,"Ġcontinu":1656,"Ġgust":1657,"ka":1658,"Ġescu":1659,"ĠCan":1660,"Ġ30":1661,"mbre":1662,"Ġequipo":1663,"ĠIs":1664,"Ġsa":1665,"Ġhijo":1666,"Ġespa":1667,"Ġdentro":1668,"ĠaÃºn":1669,"Ġalgunos":1670,"Ġcaso":1671,"Ġis":1672,"Ġgr":1673,"ĠUna":1674,"Ġder":1675,"ĠFe":1676,"ÃŃr":1677,"var":1678,"ĠCuando":1679,"ticos":1680,"Ġmuerte":1681,"199":1682,"xico":1683,"ĠmÃºs":1684,"Ġelec":1685,"ganiz":1686,"ĠJosÃ©":1687,"eric":1688,"Ġobs":1689,"isiÃ³n":1690,"eciÃ³":1691,"iero":1692,"ĠpelÃŃcu":1693,"ger":1694,"adio":1695,"Ġkm":1696,"cor":1697,"Ġserie":1698,"hn":1699,"anto":1700,"ign":1701,"ĠespaÃ±ol":1702,"Ġsiste":1703,"Ġautor":1704,"trÃ¡s":1705,"ph":1706,"una":1707,"ĠsÃ©":1708,"Ġfrente":1709,"Ġtermin":1710,"Ġapro":1711,"Ġmus":1712,"Ġtuvo":1713,"Ġpueb":1714,"Ġlevant":1715,"adie":1716,"tando":1717,"ientes":1718,"ÃŃf":1719,"Ġrecu":1720,"Ġpron":1721,"Ġdem":1722,"enso":1723,"Ġpun":1724,"vÃ©s":1725,"dal":1726,"ĠDa":1727,"Ġ*'":1728,"Ġsil":1729,"mÃ¡":1730,"imo":1731,"ĠPara":1732,"Ġho":1733,"Al":1734,"rea":1735,"Ġw":1736,"bio":1737,"ĠEuro":1738,"Ġsiendo":1739,"Ã¡c":1740,"Ã±as":1741,"Ġtele":1742,"lio":1743,"Ġima":1744,"ĠcompaÃ±":1745,"omin":1746,"Ġinici":1747,"Ġmodo":1748,"ĠSer":1749,"ece":1750,"Ġmer":1751,"rio":1752,"Ġneg":1753,"Ġloc":1754,"idente":1755,"Ġprovin":1756,"Ġdese":1757,"10":1758,"Ġprofes":1759,"Ġcambi":1760,"ĠHa":1761,"Ġbu":1762,"ĠtravÃ©s":1763,"ĠEste":1764,"Ġav":1765,"tada":1766,"gel":1767,"iel":1768,"bum":1769,"Ġdescub":1770,"Ġexist":1771,"Ġobje":1772,"ĠInter":1773,"Ġhabl":1774,"leg":1775,"jÃ³":1776,"Ġocu":1777,"pel":1778,"eras":1779,"Ġrom":1780,"Ġlargo":1781,"Ġrey":1782,"ĠTambiÃ©n":1783,"ira":1784,"tbol":1785,"ick":1786,"dial":1787,"nas":1788,"zar":1789,"Los":1790,"ticas":1791,"Ġestre":1792,"Ġcualquier":1793,"Ġguerra":1794,"Ġestos":1795,"Ġservi":1796,"ĠSh":1797,"ĠMÃ©xico":1798,"Ġcapa":1799,"inal":1800,"ĠCent":1801,"Ġigu":1802,"ologÃŃa":1803,"mit":1804,"Ġpresent":1805,"Ġcl":1806,"Ġjoven":1807,"Ġiba":1808,"Ãºtbol":1809,"respon":1810,"ctubre":1811,"ĠpÃºb":1812,"Ġmiemb":1813,"lÃ©s":1814,"Ġaquella":1815,"este":1816,"ĠnÃºmero":1817,"Ġsea":1818,"Ġvia":1819,"Ġtipo":1820,"ĠHist":1821,"Ġcuar":1822,"cidad":1823,"Ġub":1824,"Ġdistin":1825,"dente":1826,"Ġatra":1827,"ptiembre":1828,"Ġfe":1829,"char":1830,"Ġconsider":1831,"ĠEx":1832,"ares":1833,"ĠTh":1834,"Ġocur":1835,"dez":1836,"Ġregres":1837,"ĠQ":1838,"Ġacab":1839,"br":1840,"ribu":1841,"Ġgrandes":1842,"Ġmayo":1843,"Ġmas":1844,"Ġata":1845,"Ġhablar":1846,"Lo":1847,"ĠvolviÃ³":1848,"Ġpublic":1849,"erio":1850,"Ġdicho":1851,"Ġejemp":1852,"Re":1853,"Ġ('":1854,"Ġdemas":1855,"ĠademÃ¡s":1856,"Ġsor":1857,"Ã©rica":1858,"risa":1859,"toria":1860,"Ġcerca":1861,"antas":1862,"Ġvarios":1863,"Ġoctubre":1864,"Ġpueden":1865,"cin":1866,"Ġseptiembre":1867,"Ġquier":1868,"Ġcomer":1869,"Cu":1870,"gentina":1871,"Ġ2011":1872,"Ġobra":1873,"Ġintent":1874,"mer":1875,"usa":1876,"avor":1877,"Ġmarzo":1878,"rir":1879,"gosto":1880,"Ġ000":1881,"Ġnuev":1882,"Pero":1883,"ff":1884,"iano":1885,"ierta":1886,"Ġpin":1887,"ĠMadrid":1888,"ĠTen":1889,"ÃŃdo":1890,"enas":1891,"ĠEra":1892,"Ġmuchos":1893,"Ġagu":1894,"tuvo":1895,"Ġjulio":1896,"lec":1897,"Ġ22":1898,"od":1899,"âĢĶ,":1900,"uda":1901,"Ġpermi":1902,"Ġsegundo":1903,"cito":1904,"ingun":1905,"Ġsiguiente":1906,"rede":1907,"ki":1908,"ciendo":1909,"dir":1910,"Ġjunio":1911,"ula":1912,"ale":1913,"tud":1914,"Ġefec":1915,"irm":1916,"eraciÃ³n":1917,"SÃŃ":1918,"icia":1919,"ĠtÃº":1920,"ĠHab":1921,"ĠMarÃŃa":1922,"Ġat":1923,"Ġtrad":1924,"tero":1925,"Ã©ase":1926,"ĠpodrÃŃa":1927,"lesia":1928,"Ġcara":1929,"Ġhubiera":1930,"osotros":1931,"lbum":1932,"ĠMor":1933,"ĠNueva":1934,"ĠinglÃ©s":1935,"ĠlÃŃn":1936,"Ġproble":1937,"Ġclar":1938,"Ġverdad":1939,"Ġ2012":1940,"ĠRes":1941,"Ġbor":1942,"ĠhacÃŃa":1943,"ceso":1944,"anza":1945,"ĠÃºltimo":1946,"ice":1947,"Ġfil":1948,"iembre":1949,"17":1950,"Ġrespon":1951,"ables":1952,"Ġfavor":1953,"Ġros":1954,"Ġluz":1955,"tante":1956,"tores":1957,"Ġpalabras":1958,"Ġagosto":1959,"Ġposible":1960,"val":1961,"Ġamor":1962,"Ġorganiz":1963,"Ġhabit":1964,"gn":1965,"men":1966,"arÃ¡":1967,"Ġabril":1968,"Ġmos":1969,"Ġmujeres":1970,"Ġenero":1971,"ĠparecÃŃa":1972,"ork":1973,"ĠrÃŃo":1974,"ĠPla":1975,"Ġgen":1976,"Ġ2008":1977,"Ġquer":1978,"ĠFrancia":1979,"Ġexpres":1980,"15":1981,"Ġsign":1982,"ĠserÃŃa":1983,"mil":1984,"ĠCampe":1985,"dencia":1986,"Ġprincipal":1987,"Ġvie":1988,"Ġhu":1989,"Ġgente":1990,"Ġcub":1991,"Ġdiciembre":1992,"ĠÃī":1993,"anas":1994,"ĠGar":1995,"pregun":1996,"Ġ2015":1997,"Ġprogra":1998,"Ġ2014":1999,"Ġmant":2000,"fa":2001,"ame":2002,"Ġ24":2003,"Ġincluso":2004,"ĠsabÃŃa":2005,"ko":2006,"Ġnorte":2007,"ĠmÃ©":2008,"don":2009,"nacional":2010,"mio":2011,"Ġtro":2012,"ical":2013,"Ġpuesto":2014,"ĠMi":2015,"Ġnoviembre":2016,"Ġnadie":2017,"tenciÃ³n":2018,"Ġvolver":2019,"Ġexper":2020,"Ġinte":2021,"port":2022,"Ġ2013":2023,"vid":2024,"rag":2025,"Ġ2009":2026,"Ġgobierno":2027,"Ġnomb":2028,"Ġcontro":2029,"Ġunas":2030,"Ġbri":2031,"Ġ23":2032,"ĠEsta":2033,"seÃ±":2034,"Ġcien":2035,"12":2036,"Ġoscu":2037,"Ġtierra":2038,"Ġmovi":2039,"Ġproyec":2040,"lecciÃ³n":2041,"jÃ©r":2042,"form":2043,"Ġanim":2044,"deo":2045,"ĠRob":2046,"Ġvisto":2047,"onia":2048,"ivers":2049,"Ġ2007":2050,"mientos":2051,"tÃ¡n":2052,"ocu":2053,"ĠpelÃŃcula":2054,"ĠDespuÃ©s":2055,"Ġestable":2056,"Ã±ana":2057,"iblio":2058,"mano":2059,"udo":2060,"Ġ2016":2061,"reg":2062,"ĠBer":2063,"Ġpueblo":2064,"ĠAb":2065,"Ġsistema":2066,"au":2067,"Ġpudi":2068,"Ġdemasiado":2069,"tivi":2070,"Ġpesar":2071,"Ġalguna":2072,"isa":2073,"Ġmirada":2074,"Ġoficial":2075,"ebrero":2076,"Ġcinco":2077,"Ġsaber":2078,"via":2079,"lico":2080,"Ġ2000":2081,"16":2082,"ĠComo":2083,"Ġvio":2084,"ridad":2085,"Ġningun":2086,"Ġcolor":2087,"iene":2088,"ĠÃ¡lbum":2089,"onato":2090,"ĠSanta":2091,"inaciÃ³n":2092,"acter":2093,"Ġcosa":2094,"Ġtemporada":2095,"Ġpaso":2096,"Ġmunicipio":2097,"ĠHo":2098,"Ġcentro":2099,"Ġestas":2100,"bor":2101,"ĠMus":2102,"ĠJohn":2103,"Ġ192":2104,"')":2105,"Ġperten":2106,"Ġcir":2107,"ĠquerÃŃa":2108,"Ġello":2109,"itos":2110,"Ġley":2111,"Ġincluy":2112,"Ġubic":2113,"Ġpapel":2114,"Ġalrede":2115,"Ġnueva":2116,"Ġpasado":2117,"Con":2118,"cimiento":2119,"torio":2120,"inar":2121,"Ġayud":2122,"Ġperman":2123,"ĠRep":2124,"ĠCategorÃŃa":2125,"Ġigual":2126,"guien":2127,"ĠPres":2128,"Ġmucha":2129,"cionales":2130,"Ġ2006":2131,"ly":2132,"riz":2133,"Ġnacional":2134,"idas":2135,"ers":2136,"Ġcant":2137,"ĠPrim":2138,"dero":2139,"bar":2140,"Ġconoc":2141,"Ġdec":2142,"Ã©is":2143,"mple":2144,"Ġnatural":2145,"ĠSus":2146,"adora":2147,"Ġ21":2148,"Ġvista":2149,"ĠrÃ¡":2150,"gres":2151,"ity":2152,"edad":2153,"ĠalgÃºn":2154,"ĠAt":2155,"tÃŃn":2156,"Ġfebrero":2157,"quiera":2158,"ĠArgentina":2159,"ĠmÃºsica":2160,"Ġprovincia":2161,"pular":2162,"bu":2163,"Ġimportante":2164,"Ġcora":2165,"fo":2166,"Ġdif":2167,"Ġpartido":2168,"ĠPr":2169,"Ġocas":2170,"ĠCarlos":2171,"rez":2172,"Ġsuelo":2173,"Ġtri":2174,"ĠTer":2175,"ivel":2176,"ĠmirÃ³":2177,"ĠÃ©po":2178,"Ã¡m":2179,"ĠsegÃºn":2180,"Ġaband":2181,"Ġalc":2182,"Ġpronto":2183,"ĠtodavÃŃa":2184,"ĠHe":2185,"ack":2186,"Ġminu":2187,"ĠVÃ©ase":2188,"ĠhabrÃŃa":2189,"Ġempres":2190,"itaciÃ³n":2191,"Ġsegunda":2192,"lÃ©":2193,"Ġases":2194,"Ġtienen":2195,"Ġdin":2196,"ĠHer":2197,"pren":2198,"arme":2199,"be":2200,"arla":2201,"ĠTa":2202,"Ġidea":2203,"Ġlogr":2204,"Ġcalle":2205,"Ġfa":2206,"Ġparece":2207,"ĠII":2208,"Ġcamino":2209,"grÃ¡f":2210,"ley":2211,"ĠPol":2212,"ĠlÃŃ":2213,"rido":2214,"Ġdebido":2215,"Ġfo":2216,"jÃ©rcito":2217,"ĠmaÃ±ana":2218,"adamente":2219,"Ġalgunas":2220,"aran":2221,"Ġlar":2222,"preguntÃ³":2223,"ĠAÃ±o":2224,"Ġliber":2225,"Ġep":2226,"Ġsilenci":2227,"iores":2228,"ĠDios":2229,"Ġsos":2230,"gaciÃ³n":2231,"rito":2232,"198":2233,"olÃ³g":2234,"pir":2235,"Ãºblica":2236,"esa":2237,"Ġlibro":2238,"Ġlen":2239,"tivas":2240,"iana":2241,"tia":2242,"Un":2243,"Ġobserv":2244,"ator":2245,"ban":2246,"ĠXX":2247,"tÃ©":2248,"Ġantigu":2249,"Ġsoci":2250,"ĠHar":2251,"pecto":2252,"Ġzona":2253,"diendo":2254,"Ġcondu":2255,"Ġpartir":2256,"onio":2257,"ĠllegÃ³":2258,"Ġaire":2259,"Ġ26":2260,"inado":2261,"pl":2262,"Ġmilitar":2263,"bas":2264,"Ġmater":2265,"ĠDurante":2266,"An":2267,"hora":2268,"Ġhon":2269,"Ġdesapar":2270,"Ġfi":2271,"ĠÃºnico":2272,"her":2273,"ual":2274,"Ġfuerza":2275,"Ġconver":2276,"ĠLuis":2277,"uegos":2278,"Ġvarias":2279,"minist":2280,"Ġalcanz":2281,"ional":2282,"Ġdestac":2283,"ĠMin":2284,"igos":2285,"Ġecon":2286,"com":2287,"14":2288,"ĠTor":2289,"land":2290,"mor":2291,"ĠAdemÃ¡s":2292,"ĠAnton":2293,"Ġ2017":2294,"tag":2295,"mÃ¡n":2296,"Ġprepar":2297,"ĠYa":2298,"quil":2299,"Ġinvesti":2300,"ĠAd":2301,"Ġofre":2302,"Ġabs":2303,"Ã³nde":2304,"ĠVer":2305,"ĠFrancis":2306,"Ġ.":2307,"Â²":2308,"uelo":2309,"Ġdedi":2310,"uniden":2311,"gÃ³":2312,"âĢĻ":2313,"turas":2314,"Ġejemplo":2315,"vieron":2316,"ĠHistoria":2317,"Ġhabitantes":2318,"mento":2319,"uras":2320,"Ġalrededor":2321,"oles":2322,"ĠRos":2323,"Ġdice":2324,"Ġespecie":2325,"Ġcompar":2326,"yÃ³":2327,"puesto":2328,"ĠMu":2329,"Ġenci":2330,"ĠÃ©poca":2331,"Ġjust":2332,"ace":2333,"caciÃ³n":2334,"13":2335,"alo":2336,"Ġnivel":2337,"Le":2338,"ĠMundial":2339,"chÃ³":2340,"Ġacep":2341,"Ġ27":2342,"Ġ2005":2343,"Ġart":2344,"diente":2345,"Ġeleg":2346,"ĠÃ¡r":2347,"aciones":2348,"lin":2349,"Ġ28":2350,"lla":2351,"Ġdivers":2352,"Ġestadouniden":2353,"Ġmill":2354,"ficio":2355,"Ġalguien":2356,"erse":2357,"Ġpasa":2358,"ror":2359,"Ġcuanto":2360,"Ġconvir":2361,"formaciÃ³n":2362,"Ġhora":2363,"Ġconocido":2364,"Te":2365,"Ġ2018":2366,"igh":2367,"Ġacuerdo":2368,"Ġencar":2369,"Ġil":2370,"ĠYork":2371,"ĠXV":2372,"Ġoblig":2373,"Ġmuchas":2374,"Ġet":2375,"ardo":2376,"Ġnosotros":2377,"ĠâĢĵ":2378,"ĠChile":2379,"ĠÃºltima":2380,"ini":2381,"Ġsuf":2382,"Ġrepresent":2383,"ĠtelevisiÃ³n":2384,"ric":2385,"ĠPal":2386,"ĠFern":2387,"ingÃºn":2388,"ĠCopa":2389,"ĠDesde":2390,"van":2391,"Ã¡b":2392,"Ġfon":2393,"Ġta":2394,"Ġinterior":2395,"Ġespos":2396,"rada":2397,"Ġvent":2398,"ĠcorazÃ³n":2399,"Ġaz":2400,"Ġhermano":2401,"Ġhoras":2402,"Ġren":2403,"Ġrealidad":2404,"dra":2405,"Ġtengo":2406,"clam":2407,"quÃ©":2408,"rÃ¡":2409,"enn":2410,"mania":2411,"Ġconten":2412,"Ġ)":2413,"ler":2414,"Ġsecre":2415,"Ġvo":2416,"ĠOb":2417,"Ġtrabaj":2418,"xim":2419,"ifica":2420,"Ġespec":2421,"ĠEstado":2422,"Ġdebe":2423,"Ġbanda":2424,"Ġcele":2425,"Ġpropio":2426,"Ġcarrera":2427,"Ġreco":2428,"Ġcambio":2429,"depen":2430,"dico":2431,"ecer":2432,"Ġreun":2433,"ĠBuen":2434,"ĠmayorÃŃa":2435,"Ġpasar":2436,"Ġabandon":2437,"Ġcompren":2438,"tidad":2439,"Ġenfer":2440,"ĠpequeÃ±o":2441,"ĠRec":2442,"Ġhas":2443,"ĠquedÃ³":2444,"ĠmÃ¡":2445,"Ġmostr":2446,"erva":2447,"chivo":2448,"Ġanterior":2449,"Ġacom":2450,"orge":2451,"bur":2452,"Ġhija":2453,"Ġestoy":2454,"Ġpen":2455,"Ġpreocu":2456,"Âª":2457,"ĠSoci":2458,"ert":2459,"ĠlÃŃnea":2460,"ĠBe":2461,"Ġ2004":2462,"Ġsuce":2463,"Ġesos":2464,"gue":2465,"ĠPos":2466,"Ġfuerte":2467,"ches":2468,"ĠDi":2469,"Ġje":2470,"ÃŃos":2471,"Ġ29":2472,"Ġcapital":2473,"ĠdejÃ³":2474,"mon":2475,"Ġconte":2476,"dÃŃan":2477,"In":2478,"icha":2479,"part":2480,"Ġcierto":2481,"ĠDan":2482,"lares":2483,"iro":2484,"':":2485,"ĠningÃºn":2486,"ĠcomenzÃ³":2487,"ĠTra":2488,"Ġsepar":2489,"Ġsentido":2490,"ivil":2491,"oluciÃ³n":2492,"Ġgolpe":2493,"ĠregiÃ³n":2494,"ĠdemÃ¡s":2495,"cina":2496,"lam":2497,"Ġreal":2498,"Ġboca":2499,"Ġpuso":2500,"ielo":2501,"Ġjuego":2502,"Ġalto":2503,"ĠJa":2504,"Ġrostro":2505,"Ġdorm":2506,"pol":2507,"Ġcabo":2508,"Ġllamado":2509,"Ġrecord":2510,"Ġdejar":2511,"ĠJe":2512,"Ġpat":2513,"Ġprimero":2514,"Â°":2515,"han":2516,"ĠSegÃºn":2517,"ĠcanciÃ³n":2518,"Ġellas":2519,"Ġunivers":2520,"ĠpolÃŃtica":2521,"ĠrazÃ³n":2522,"itas":2523,"Ã©cn":2524,"Ġconsegu":2525,"Ġbal":2526,"Ġmetros":2527,"Ġpuedo":2528,"one":2529,"ĠVen":2530,"Ġ100":2531,"Ġinterpre":2532,"Ġdescon":2533,"Ġcrist":2534,"ental":2535,"Ġprob":2536,"posiciÃ³n":2537,"ciente":2538,"nes":2539,"ev":2540,"ĠItal":2541,"Ġhoy":2542,"cir":2543,"ĠGuerra":2544,"Ġext":2545,"cta":2546,"Ġclub":2547,"iza":2548,"ĠFrancisco":2549,"Ġdomin":2550,"Ġdado":2551,"'s":2552,"diciÃ³n":2553,"uri":2554,"Ġdescri":2555,"edro":2556,"ĠfÃ¡":2557,"Ġdirector":2558,"ĠhabitaciÃ³n":2559,"Ġninguna":2560,"uerto":2561,"Ġpresidente":2562,"Ġterri":2563,"paciÃ³n":2564,"ĠEntre":2565,"aya":2566,"ĠpasÃ³":2567,"ĠpequeÃ±a":2568,"ĠVic":2569,"Ġobras":2570,"ins":2571,"pres":2572,"ĠPartido":2573,"Ġmeses":2574,"oraciÃ³n":2575,"omas":2576,"ĠÂº":2577,"ĠBel":2578,"ĠReal":2579,"iva":2580,"Ġpalabra":2581,"tÃ³n":2582,"Ġbol":2583,"culo":2584,"ĠTras":2585,"Ġambos":2586,"ĠÃ©x":2587,"ĠfÃºtbol":2588,"Ġ2019":2589,"dios":2590,"11":2591,"Ġcont":2592,"ĠSte":2593,"Ġsex":2594,"Ġestadounidense":2595,"Ġsang":2596,"Ġcruz":2597,"ham":2598,"Ġmesa":2599,"Ġperio":2600,"ide":2601,"puesta":2602,"Ġamigo":2603,"Ġsir":2604,"ĠseÃ±al":2605,"tec":2606,"Ġpropia":2607,"omÃŃa":2608,"dÃŃ":2609,"tista":2610,"Ġesca":2611,"pÃ³":2612,"Ġsalir":2613,"Ġbuena":2614,"Ġprimeros":2615,"Ġescrib":2616,"To":2617,"stas":2618,"viera":2619,"Ġpudo":2620,"iar":2621,"ĠGal":2622,"Ġcur":2623,"ĠacompaÃ±":2624,"Ġimag":2625,"riendo":2626,"Ġcontr":2627,"Ġrefer":2628,"giÃ³":2629,"Ġdiferentes":2630,"ĠrelaciÃ³n":2631,"50":2632,"bios":2633,"Ġemple":2634,"Ġdinero":2635,"Ġencima":2636,"ĠIg":2637,"unci":2638,"Ġsilencio":2639,"Ġcaracter":2640,"ate":2641,"Ġprograma":2642,"ĠGe":2643,"lado":2644,"Ġderro":2645,"ĠGener":2646,"ish":2647,"Ġhijos":2648,"ĠDiv":2649,"erro":2650,"ĠAntonio":2651,"sos":2652,"reo":2653,"vela":2654,"icamente":2655,"ires":2656,"Ġbastante":2657,"Ġhici":2658,"Ġ190":2659,"ĠEuropa":2660,"Ġnuestra":2661,"ĠtÃ©r":2662,"Ġactivi":2663,"ane":2664,"ĠLib":2665,"ĠtÃŃtulo":2666,"Ġquiero":2667,"ĠLond":2668,"ĠDel":2669,"celona":2670,"ĠAlemania":2671,"cÃ©s":2672,"ĠRepÃºblica":2673,"ĠBiblio":2674,"taron":2675,"Ġprofun":2676,"ĠDepor":2677,"dados":2678,"ĠGra":2679,"Ġmillones":2680,"Ġlibre":2681,"wn":2682,"Ġseis":2683,"ĠAust":2684,"ablemente":2685,"Ġrelig":2686,"sh":2687,"ĠPas":2688,"ĠGo":2689,"zÃ³":2690,"usiÃ³n":2691,"Ġgrande":2692,"ĠSur":2693,"umb":2694,"Ġpensar":2695,"ty":2696,"ĠXI":2697,"jor":2698,"Ġminutos":2699,"ans":2700,"Ġ2003":2701,"ĠdirecciÃ³n":2702,"Ġprue":2703,"Ġcolo":2704,"Ġdepor":2705,"ecÃŃa":2706,"Ġaut":2707,"Ġase":2708,"ner":2709,"Ġpartici":2710,"Ġencontrar":2711,"ĠcrÃŃ":2712,"Ġseguir":2713,"alla":2714,"antos":2715,"Ġ2001":2716,"Ġreconoci":2717,"ecido":2718,"Ġenvi":2719,"ampo":2720,"ĠAu":2721,"entaciÃ³n":2722,"Ġparticip":2723,"ĠTr":2724,"Ġfund":2725,"Ġvas":2726,"Ġenfr":2727,"Ġconti":2728,"Ġtre":2729,"illas":2730,"ĠAsÃŃ":2731,"ĠtenÃŃan":2732,"tÃ¡":2733,"ĠgÃ©n":2734,"tillo":2735,"Ã©ndose":2736,"ok":2737,"Ġenten":2738,"ĠsituaciÃ³n":2739,"vidu":2740,"III":2741,"Ã±ola":2742,"Ġnuestro":2743,"Su":2744,"197":2745,"ĠBan":2746,"ĠSol":2747,"ÃŃculo":2748,"Ġbes":2749,"Ġedad":2750,"ĠWill":2751,"ĠdebÃŃa":2752,"Ġfel":2753,"Ġpopular":2754,"ĠediciÃ³n":2755,"izÃ¡":2756,"ĠIng":2757,"Ġmode":2758,"ĠLuego":2759,"Ġbase":2760,"Ġcampo":2761,"Ġcuales":2762,"iciones":2763,"Ġcabal":2764,"ĠMal":2765,"cida":2766,"ĠniÃ±os":2767,"wa":2768,"Ġarro":2769,"Ġconj":2770,"ĠNew":2771,"art":2772,"Ġresto":2773,"Ġon":2774,"ĠPedro":2775,"CÃ³mo":2776,"Ġhaciendo":2777,"Ġcuad":2778,"are":2779,"Ġ50":2780,"Ġsitio":2781,"Ġlengua":2782,"Ġguar":2783,"ĠParÃŃs":2784,"Ġpier":2785,"ĠReg":2786,"lÃ¡":2787,"Ġmedia":2788,"Ġcorrespon":2789,"pciÃ³n":2790,"Ġig":2791,"Yo":2792,"ciden":2793,"Ġconci":2794,"cle":2795,"Ġbrazos":2796,"Ġvac":2797,"Ġsocial":2798,"ensiÃ³n":2799,"pes":2800,"Ġtenido":2801,"Ġepiso":2802,"ĠIS":2803,"Ġsenci":2804,"dust":2805,"gust":2806,"mentos":2807,"Ġlig":2808,"Ġsangre":2809,"Ġclase":2810,"Ġmovimiento":2811,"ĠSon":2812,"ple":2813,"Ġsomb":2814,"Ġ40":2815,"Ġinm":2816,"Ġvic":2817,"Ġapre":2818,"ĠBarcelona":2819,"Ġsuperfici":2820,"Las":2821,"Des":2822,"Ġinteres":2823,"Ġconstitu":2824,"zado":2825,"Ġlim":2826,"eas":2827,"ĠAunque":2828,"ĠEd":2829,"ila":2830,"Ġcama":2831,"Ġcine":2832,"Ġmiembros":2833,"Ġcomien":2834,"Ġ2002":2835,"arle":2836,"Ġprincipio":2837,"iedad":2838,"ĠAmÃ©rica":2839,"Ġcontrol":2840,"Ġespecial":2841,"ĠCampeonato":2842,"Ġinme":2843,"ĠItalia":2844,"Ġextre":2845,"Ġenc":2846,"irse":2847,"Ġesas":2848,"atalla":2849,"pan":2850,"tiendo":2851,"Ġpare":2852,"ĠatrÃ¡s":2853,"Ġer":2854,"Ġleg":2855,"Ar":2856,"Ġrecib":2857,"ĠMas":2858,"iam":2859,"ĠdÃ©c":2860,"Ġvuelta":2861,"teriormente":2862,"ĠMer":2863,"cando":2864,"cent":2865,"arca":2866,"ĠTu":2867,"istro":2868,"Ġsiquiera":2869,"Ġsens":2870,"Ġsoy":2871,"oro":2872,"ĠArchivo":2873,"Ġiz":2874,"rimonio":2875,"inÃ³":2876,"Ġpose":2877,"ficiente":2878,"ari":2879,"Ġenter":2880,"ificaciÃ³n":2881,"lad":2882,"Ġdolor":2883,"Ġfuncion":2884,"damente":2885,"Ġsabe":2886,"amb":2887,"vir":2888,"Ġviol":2889,"ĠMartÃŃn":2890,"Ġretir":2891,"ĠserÃ¡":2892,"ime":2893,"Ġalta":2894,"lav":2895,"Ġcargo":2896,"tario":2897,"Ġposib":2898,"Ġescal":2899,"caba":2900,"Ġuso":2901,"Ã±ad":2902,"Ġfre":2903,"Ġdiez":2904,"imos":2905,"manas":2906,"ĠversiÃ³n":2907,"elas":2908,"Ġclaro":2909,"Ġpuntos":2910,"Ġcompr":2911,"ĠFo":2912,"americ":2913,"ĠImp":2914,"terÃŃa":2915,"Ġestuvo":2916,"Ġperfec":2917,"ablo":2918,"ĠproducciÃ³n":2919,"ÃŃsticas":2920,"ĠPaÃŃs":2921,"ampoco":2922,"itÃ³":2923,"ĠDis":2924,"Si":2925,"ld":2926,"Ã¡st":2927,"Ġpelig":2928,"Ġsonrisa":2929,"ĠTom":2930,"Ġdelante":2931,"hu":2932,"cciones":2933,"ĠGre":2934,"Ġinclu":2935,"Ġ189":2936,"ĠseÃ±ora":2937,"Ġestru":2938,"Ġaquellos":2939,"ĠHabÃŃa":2940,"cuencia":2941,"ĠElla":2942,"Ġrecor":2943,"Ġceleb":2944,"ines":2945,"Ġvan":2946,"emen":2947,"Ġalma":2948,"ĠMat":2949,"ĠposiciÃ³n":2950,"ĠGeneral":2951,"tt":2952,"Ġcreo":2953,"Ġobten":2954,"Ġsorpren":2955,"Ġcampe":2956,"Ã©ndo":2957,"yn":2958,"Ġnum":2959,"xto":2960,"Ġedu":2961,"Ġestudio":2962,"icÃŃa":2963,"Ġoro":2964,"Ġarri":2965,"iete":2966,"Ġizquier":2967,"Ġsimple":2968,"ĠÃºnica":2969,"ĠsentÃŃa":2970,"Ġmenor":2971,"ĠFin":2972,"itado":2973,"ĠquiÃ©n":2974,"atÃ³":2975,"stante":2976,"ĠMil":2977,"ĠDo":2978,"ER":2979,"itÃ¡n":2980,"ĠLondres":2981,"Ġimpres":2982,"ĠCrist":2983,"ĠCab":2984,"Ġbr":2985,"Ġarm":2986,"ĠLi":2987,"ĠRam":2988,"Ġmoder":2989,"ieran":2990,"Ġlocalidad":2991,"ĠEdi":2992,"cesa":2993,"ĠatenciÃ³n":2994,"itor":2995,"ĠBen":2996,"ĠahÃŃ":2997,"Ġdisco":2998,"adres":2999,"dieron":3000,"Ġisla":3001,"ĠÃ©xito":3002,"Ġsan":3003,"ĠJun":3004,"Ġdestru":3005,"Ġseguro":3006,"jado":3007,"Ġnar":3008,"gada":3009,"ĠQue":3010,"25":3011,"Ġbel":3012,"ĠAires":3013,"Ġvein":3014,"30":3015,"arÃ©":3016,"ĠpÃºblico":3017,"ĠCiudad":3018,"Ġarte":3019,"Ġblanco":3020,"Ġcorre":3021,"Ġrode":3022,"ĠdetrÃ¡s":3023,"BN":3024,"ĠniÃ±o":3025,"Ġestilo":3026,"iencia":3027,"Ġtur":3028,"Ġaum":3029,"ĠNorte":3030,"ĠtÃ©cn":3031,"pro":3032,"Ġfra":3033,"Ġcondado":3034,"amientos":3035,"abor":3036,"Ġadel":3037,"later":3038,"fon":3039,"Ġgracias":3040,"Ġur":3041,"trodu":3042,"ys":3043,"Ġcri":3044,"Ġcompe":3045,"Ġado":3046,"uesto":3047,"Ġsola":3048,"ĠprÃ¡c":3049,"Ġedificio":3050,"cera":3051,"Ġindividu":3052,"Ġespal":3053,"Ġservicio":3054,"ye":3055,"ĠfrancÃ©s":3056,"Ġmonta":3057,"Ġverda":3058,"Ġdesarrollo":3059,"Ġ1999":3060,"ĠempezÃ³":3061,"ĠÃ³r":3062,"Ġesf":3063,"Ġderecho":3064,"Ġamigos":3065,"Ġdeter":3066,"ĠBr":3067,"Ġagr":3068,"Ã©l":3069,"tiago":3070,"cada":3071,"orneo":3072,"ĠVol":3073,"partamento":3074,"ĠBio":3075,"ĠBal":3076,"Ġfuerzas":3077,"Ġves":3078,"Ġ;":3079,"ĠPremio":3080,"llas":3081,"Ġpelo":3082,"ĠhistÃ³r":3083,"ĠSegun":3084,"Ġesposa":3085,"Ġhacerlo":3086,"ĠSch":3087,"Ġdocu":3088,"ĠeconÃ³m":3089,"rios":3090,"orme":3091,"ĠdifÃŃ":3092,"entÃ³":3093,"Ġespacio":3094,"AR":3095,"titud":3096,"ĠÃīl":3097,"tific":3098,"ĠLiga":3099,"onas":3100,"ĠFil":3101,"Ġdeba":3102,"Ġasegu":3103,"inta":3104,"Ġvalor":3105,"dar":3106,"Ġpodr":3107,"ker":3108,"Ã³nica":3109,"Ġtema":3110,"siones":3111,"Ġamar":3112,"tida":3113,"cien":3114,"ticular":3115,"ix":3116,"tien":3117,"Ġiden":3118,"ĠejÃ©rcito":3119,"Ġjefe":3120,"ĠinformaciÃ³n":3121,"Ġsentir":3122,"Ġfondo":3123,"Ã¶":3124,"):":3125,"use":3126,"ĠGob":3127,"Ġ1998":3128,"Ġlocal":3129,"ĠDivisiÃ³n":3130,"Ġgal":3131,"genes":3132,"Ãī":3133,"Ġexplic":3134,"Ġapenas":3135,"Ġdeten":3136,"tidos":3137,"Ġpiel":3138,"licaciÃ³n":3139,"stituto":3140,"Ch":3141,"ĠUniÃ³n":3142,"Ġprovo":3143,"entar":3144,"Ġ+":3145,"ÃŃfico":3146,"tilla":3147,"vol":3148,"ĠconvirtiÃ³":3149,"Ã³vil":3150,"ps":3151,"bal":3152,"Ġlabios":3153,"Ġinstru":3154,"ĠÃ¡rbol":3155,"Ġllamada":3156,"Ġtrata":3157,"Ġdispar":3158,"Ġconm":3159,"Ġactual":3160,"Ġges":3161,"Ġelem":3162,"Ġampl":3163,"Ġmediante":3164,"Ġredu":3165,"Ġproce":3166,"Ġfalta":3167,"iguel":3168,"Ġaba":3169,"gular":3170,"ĠllevÃ³":3171,"ĠBuenos":3172,"tivamente":3173,"Ġmiedo":3174,"ĠResul":3175,"Ġazul":3176,"lores":3177,"unciÃ³":3178,"Ġprome":3179,"Ġrefle":3180,"Ġconsigu":3181,"icio":3182,"Ġvelo":3183,"unidad":3184,"Ġllevaba":3185,"ĠconstrucciÃ³n":3186,"Ġauto":3187,"irÃ³":3188,"Ġcaus":3189,"Mar":3190,"Ġorigen":3191,"pera":3192,"Ġpant":3193,"Ġhos":3194,"Ġadminist":3195,"vas":3196,"ĠMay":3197,"Ġnave":3198,"ĠFor":3199,"ianza":3200,"Ġasist":3201,"Ġiglesia":3202,"ĠPrimera":3203,"ĠAnd":3204,"ĠpaÃŃses":3205,"Cuando":3206,"onte":3207,"ĠAhora":3208,"ĠgÃ©nero":3209,"turo":3210,"Ġproceso":3211,"Ġcoche":3212,"ĠcompaÃ±ÃŃa":3213,"demos":3214,"Ġfinales":3215,"Ġsignifica":3216,"Ġ<":3217,"Ġnego":3218,"iles":3219,"Ġtitu":3220,"Ġras":3221,"iertos":3222,"vent":3223,"Ã©m":3224,"oce":3225,"Ġquiere":3226,"ames":3227,"ĠKa":3228,"Ġestudios":3229,"Ġayuda":3230,"laterra":3231,"Ġdispon":3232,"metros":3233,"Ġ#":3234,"Ġduda":3235,"Ġfuego":3236,"40":3237,"Ġbos":3238,"guay":3239,"ĠFu":3240,"Ġproblemas":3241,"ĠpÃ¡g":3242,"Ã©tica":3243,"pado":3244,"Ġsuperficie":3245,"ĠBro":3246,"Ġgas":3247,"Ġvir":3248,"ĠRus":3249,"su":3250,"ĠÃ©s":3251,"aro":3252,"Ġpersonal":3253,"ĠFa":3254,"Ġdoctor":3255,")'":3256,"ĠManuel":3257,"ĠISBN":3258,"Ã¡ndole":3259,"Ġcomb":3260,"Ġcivil":3261,"cionado":3262,"bel":3263,"Ya":3264,"Ġcausa":3265,"ĠJes":3266,"Ġenem":3267,"Ġingres":3268,"Ġ188":3269,"ĠdÃ©":3270,"int":3271,"ĠvÃŃ":3272,"Ġvig":3273,"ĠAc":3274,"Ġpresencia":3275,"Ġ1997":3276,"Ġ<<":3277,"Ġhistor":3278,"Ġital":3279,"onda":3280,"Ġnegro":3281,"izaciÃ³n":3282,"ĠcomÃºn":3283,"Ġoriginal":3284,"uls":3285,"Ġprincipales":3286,"yos":3287,"Ġinten":3288,"atos":3289,"ĠRu":3290,"ĠVir":3291,"Ġnie":3292,"rados":3293,"itud":3294,"Ġcru":3295,"Ġllevar":3296,"Ġproyecto":3297,"ĠInglaterra":3298,"Ġimagen":3299,"ilar":3300,"Ġevitar":3301,"col":3302,"Ġbrazo":3303,"ĠbritÃ¡n":3304,"Ġmiembro":3305,"ĠBu":3306,"ite":3307,"Ġviaje":3308,"Ġconven":3309,"testÃ³":3310,"Ġfir":3311,"urÃ³":3312,"Ġgobern":3313,"erte":3314,"ĠSantiago":3315,"sion":3316,"estiÃ³n":3317,"estra":3318,"ĠlevantÃ³":3319,"Ġmanten":3320,"Ġhermana":3321,"Ġapren":3322,"ĠPue":3323,"by":3324,"ĠInternacional":3325,"Ġconvers":3326,"Ġequipos":3327,"Ġfinalmente":3328,"Una":3329,"Ġplata":3330,"ÃŃstica":3331,"Ġpartes":3332,"Ġparticular":3333,"Ġpies":3334,"196":3335,"jero":3336,"Ġsemana":3337,"Ġhonor":3338,"Ġmit":3339,"amÃ¡s":3340,"ull":3341,"Ġpan":3342,"Ġsuperior":3343,"Ġsuficiente":3344,"end":3345,"Ġpreci":3346,"onz":3347,"ĠOs":3348,"AN":3349,"abe":3350,"omos":3351,"ĠBras":3352,"ĠCos":3353,"ward":3354,"cepciÃ³n":3355,"Ġvoy":3356,"ritu":3357,"Ġdispu":3358,"Ã¨":3359,"Ġfoto":3360,"tagon":3361,"Ġdatos":3362,"ĠfÃ¡cil":3363,"ĠJap":3364,"Ġcapaz":3365,"Ġviejo":3366,"Ġoc":3367,"abilidad":3368,"Ġtomar":3369,"22":3370,"ĠfÃŃs":3371,"erto":3372,"ĠEsto":3373,"Ġfron":3374,"ĠMiguel":3375,"Ġlejos":3376,"Ġbatalla":3377,"ĠDavid":3378,"ky":3379,"Ġbaja":3380,"teriores":3381,"Ġdistancia":3382,"ĠDon":3383,"ivo":3384,"Ġlibros":3385,"Ġindepen":3386,"plic":3387,"ere":3388,"ĠRey":3389,"Ġafec":3390,"Ġcanciones":3391,"ĠsaliÃ³":3392,"Ġ1990":3393,"ĠpreguntÃ³":3394,"rÃ©":3395,"Ġentrar":3396,"ft":3397,"ĠPerÃº":3398,"Ġinflu":3399,"Ġsupon":3400,"Ġejecu":3401,"itaba":3402,"âĢķ":3403,"Ġpartidos":3404,"ĠBibliografÃŃa":3405,"As":3406,"Ġja":3407,"ĠpolÃŃtico":3408,"Ġgrupos":3409,"Ġcuarto":3410,"arte":3411,"Ġcielo":3412,"Ġllegado":3413,"ĠReino":3414,"ĠenseÃ±":3415,"jada":3416,"ĠHay":3417,"triz":3418,"Ġincor":3419,"ance":3420,"ise":3421,"rique":3422,"Ġ31":3423,"Ġalim":3424,"ĠSuper":3425,"Ġavanz":3426,"Ġresultado":3427,"Ġentrada":3428,"ĠEr":3429,"Ġsiguientes":3430,"Ġ1996":3431,"ĠFel":3432,"imiento":3433,"Ġdesp":3434,"Ġempresa":3435,"ĠabriÃ³":3436,"ĠHu":3437,"ĠSam":3438,"ĠChar":3439,"Ġpadres":3440,"Ġrad":3441,"ĠdÃ³nde":3442,"Ġnorm":3443,"cadem":3444,"ciales":3445,"ĠBol":3446,"rer":3447,"og":3448,"ĠinterÃ©s":3449,"ĠEdu":3450,"Ġsimil":3451,"Ġrespuesta":3452,"Ġ1994":3453,"Ġconserv":3454,"Referencias":3455,"alacio":3456,"arias":3457,"Ġnoti":3458,"gal":3459,"cipe":3460,"Ġdesarroll":3461,"ĠdifÃŃcil":3462,"Ġmente":3463,"Ġcumpl":3464,"ĠCatal":3465,"iss":3466,"Ġreac":3467,"ĠexpresiÃ³n":3468,"Ġcome":3469,"tadas":3470,"ĠÃºltimos":3471,"ĠDemo":3472,"adu":3473,"Ġdaba":3474,"ung":3475,"ĠFC":3476,"Ġeta":3477,"Ġproblema":3478,"Ġnumeros":3479,"Ġdemos":3480,"ciaciÃ³n":3481,"ĠÃģn":3482,"cra":3483,"Ġmuerto":3484,"ĠCap":3485,"ind":3486,"Ġgrab":3487,"orld":3488,"Ġimportantes":3489,"ĠallÃ¡":3490,"Ġinternacional":3491,"ĠCla":3492,"Ġtampoco":3493,"Ġ187":3494,"Ġprote":3495,"Ġconce":3496,"let":3497,"Ġmez":3498,"Ġponer":3499,"Ġdeclar":3500,"ĠestaciÃ³n":3501,"Ġocul":3502,"Ġener":3503,"Ġcuid":3504,"segu":3505,"ĠdÃ©cada":3506,"Ġmitad":3507,"ĠEqui":3508,"23":3509,"Ġcomba":3510,"Ġvivir":3511,"abel":3512,"Ġbuscar":3513,"Ġubicado":3514,"ĠtÃ©rm":3515,"Ġamena":3516,"Ġsala":3517,"lev":3518,"ĠJul":3519,"Ġcel":3520,"porte":3521,"ES":3522,"Ġpropor":3523,"Ġsalud":3524,"Ġdesper":3525,"ĠrecibiÃ³":3526,"Ġmantener":3527,"ĠPat":3528,"Ġinstante":3529,"ĠdecÃŃa":3530,"ÃŃsi":3531,"ĠMac":3532,"ĠFer":3533,"ĠRom":3534,"ĠpolicÃŃa":3535,"ĠpensÃ³":3536,"Ġalter":3537,"Ġpudiera":3538,"adÃ¡":3539,"Ġ186":3540,"unt":3541,"Ġjue":3542,"gre":3543,"culos":3544,"Ġbre":3545,"jeros":3546,"Ġfirm":3547,"ĠSegunda":3548,"ÃŃncipe":3549,"Ġindust":3550,"Ġdirec":3551,"greso":3552,"ĠMc":3553,"ĠCruz":3554,"xic":3555,"rÃ¡n":3556,"riente":3557,"ash":3558,"Ġens":3559,"Ġbeb":3560,"21":3561,"Ġseguridad":3562,"Ġcay":3563,"Ġmedios":3564,"Ġdesc":3565,"Ġfru":3566,"Ġproteg":3567,"tarse":3568,"Ġantiguo":3569,"Ġefecto":3570,"ello":3571,"estiv":3572,"bles":3573,"fica":3574,"ĠBri":3575,"Ġapoy":3576,"eran":3577,"Ġhaya":3578,"Ġoport":3579,"ĠDist":3580,"mios":3581,"iere":3582,"Ġ1995":3583,"rÃ³n":3584,"Ġarmas":3585,"ĠIII":3586,"Ġencontraba":3587,"Ġhemos":3588,"Ġexten":3589,"ĠsintiÃ³":3590,"ĠprÃ³":3591,"Ġ35":3592,"ĠÃ¡rea":3593,"ÃŃm":3594,"Ġespecies":3595,"teca":3596,"ĠAlgun":3597,"Ġresist":3598,"ĠrÃ¡pi":3599,"ĠIglesia":3600,"Ġdetermin":3601,"curso":3602,"Ġejer":3603,"ĠWilliam":3604,"Ġbur":3605,"ĠNor":3606,"Ġquin":3607,"Ġcompos":3608,"ĠPh":3609,"ĠDie":3610,"ĠRoma":3611,"trÃ³":3612,"Ġreligios":3613,"ĠPan":3614,"ĠBur":3615,"diciones":3616,"ĠHen":3617,"Ġpien":3618,"acto":3619,"pido":3620,"ombia":3621,"didos":3622,"onel":3623,"ĠBas":3624,"AS":3625,"Ġevi":3626,"Ġimpos":3627,"ney":3628,"Ġintrodu":3629,"ilÃ³":3630,"emp":3631,"ks":3632,"taban":3633,"Ġabajo":3634,"ight":3635,"aca":3636,"ĠAy":3637,"untos":3638,"Ġarriba":3639,"ĠEsc":3640,"ĠBrasil":3641,"Ġtono":3642,"clamÃ³":3643,"ĠMejor":3644,"Ġencuentran":3645,"Ġperder":3646,"Ġarqui":3647,"ĠestÃ¡s":3648,"ĠtomÃ³":3649,"Ġconjunto":3650,"ĠCentro":3651,"Ġweb":3652,"fes":3653,"ĠTierra":3654,"ctura":3655,"Ġdetal":3656,"Ġpocos":3657,"ĠHol":3658,"Ġquienes":3659,"iales":3660,"chado":3661,"dÃ³":3662,"mpicos":3663,"ĠBor":3664,"ĠseguÃŃa":3665,"ĠÃ©ste":3666,"Ġentren":3667,"Buen":3668,"Ġderecha":3669,"ĠÃ¡n":3670,"ĠespaÃ±ola":3671,"ĠEstaba":3672,"ĠFernando":3673,"ĠSec":3674,"olog":3675,"pul":3676,"Ġfigu":3677,"Ġdespe":3678,"Ġcuel":3679,"pital":3680,"unda":3681,"frica":3682,"ĠMÃ¡s":3683,"Ġavi":3684,"Ġescuela":3685,"cy":3686,"Ġcentral":3687,"ĠFre":3688,"Ġlleva":3689,"Ġprincipios":3690,"Ġterritorio":3691,"Ġpiedra":3692,"Ġdepen":3693,"bra":3694,"ĠAlber":3695,"cam":3696,"Car":3697,"Ġmedida":3698,"ĠMientras":3699,"Ġaltura":3700,"24":3701,"Ġfemen":3702,"ĠJuegos":3703,"Ġrepar":3704,"Ġpul":3705,"Ġdejado":3706,"Ġ1992":3707,"iforn":3708,"ctos":3709,"Ġlec":3710,"ĠGer":3711,"ocal":3712,"Ġsiete":3713,"Ġsignific":3714,"Ġbrill":3715,"ĠUnido":3716,"Ġnovela":3717,"uestra":3718,"Ġesfuer":3719,"torial":3720,"Ġtienes":3721,"Ġhubi":3722,"reas":3723,"Ġocho":3724,"Ġexperim":3725,"Ġcuyo":3726,"Ġsociedad":3727,"Ġlista":3728,"ĠJapÃ³n":3729,"ĠEstÃ¡":3730,"zada":3731,"grÃ¡fica":3732,"Ġdedos":3733,"Ġcaball":3734,"Ã¡mara":3735,"Ġespecialmente":3736,"Ġtir":3737,"Ġcantidad":3738,"ĠNi":3739,"ĠÃģngel":3740,"ĠRev":3741,"ĠXIX":3742,"ĠCul":3743,"Ġaproxim":3744,"rans":3745,"rupo":3746,"ĠLeÃ³n":3747,"sen":3748,"ĠFÃºtbol":3749,"Ġ36":3750,"manos":3751,"Ġconocida":3752,"asa":3753,"Ġtus":3754,"ĠtÃ©rmino":3755,"Ġrecuper":3756,"Ġconvertir":3757,"estro":3758,"Ġcarre":3759,"Ġdig":3760,"venes":3761,"reno":3762,"Ġsuje":3763,"Ġizquierda":3764,"ancias":3765,"tÃŃa":3766,"Ġconta":3767,"Ġpriv":3768,"Ġacos":3769,"Ġfies":3770,"Ġeuro":3771,"taciones":3772,"Ġeres":3773,"ĠSeÃ±":3774,"ervi":3775,"Ġcient":3776,"rano":3777,"ĠSt":3778,"Ġrespecto":3779,"eca":3780,"Ġjard":3781,"ĠColombia":3782,"lez":3783,"Ġgrie":3784,"ald":3785,"dalla":3786,"ĠcapitÃ¡n":3787,"ĠBiografÃŃa":3788,"Ã³venes":3789,"ĠdecidiÃ³":3790,"ĠConse":3791,"Ġespalda":3792,"Ġprotagon":3793,"Ġcaer":3794,"ĠFlor":3795,"Ġvino":3796,"Ġsenti":3797,"ĠSim":3798,"ĠSil":3799,"Ġtab":3800,"emente":3801,"ore":3802,"quia":3803,"Ġcuya":3804,"ĠWil":3805,"fi":3806,"ĠTal":3807,"CA":3808,"rie":3809,"iudades":3810,"isterio":3811,"Ġdistrito":3812,"Ġinfer":3813,"Ġmadera":3814,"Ġemo":3815,"ribuciÃ³n":3816,"tencia":3817,"eso":3818,"Ġsupuesto":3819,"Ten":3820,"Po":3821,"Ġnuevos":3822,"Ġoeste":3823,"ny":3824,"000":3825,"amÃ¡":3826,"Ġnuestros":3827,"cepto":3828,"Ġorigin":3829,"tales":3830,"Ġpecho":3831,"yas":3832,"Ġgar":3833,"ipe":3834,"ÃŃculos":3835,"Ġaparece":3836,"Ġdebajo":3837,"Ġetc":3838,"Ġcarta":3839,"dena":3840,"ĠniÃ±a":3841,"Ġlabor":3842,"ĠJack":3843,"Ġimpor":3844,"ĠGarcÃŃa":3845,"Ġveci":3846,"legio":3847,"ĠAlex":3848,"Ġescritor":3849,"Ãºa":3850,"Ġem":3851,"Ġ1991":3852,"ifornia":3853,"Ġacerca":3854,"ĠjamÃ¡s":3855,"Ġconmigo":3856,"ĠTur":3857,"ĠAcadem":3858,"Ġinstitu":3859,"quina":3860,"ĠCre":3861,"Ġsegura":3862,"estival":3863,"ĠperÃŃo":3864,"Ġenf":3865,"ĠWorld":3866,"Ġarti":3867,"Ġsec":3868,"Ġtradu":3869,"ock":3870,"ĠGeo":3871,"Ġconde":3872,"Ġ33":3873,"ĠveÃŃa":3874,"Ġdisf":3875,"Ġfamos":3876,"rump":3877,"ĠalemÃ¡n":3878,"ximo":3879,"ĠSab":3880,"Par":3881,"ford":3882,"Ġlucha":3883,"ington":3884,"gia":3885,"Ġ1993":3886,"ĠPeter":3887,"Ġingen":3888,"atorio":3889,"Ġabsolu":3890,"orden":3891,"xima":3892,"Ġmatrimonio":3893,"we":3894,"uth":3895,"ĠTenÃŃa":3896,"Ġdenomin":3897,"entas":3898,"Ġconocer":3899,"Ġido":3900,"Ġsuerte":3901,"cidente":3902,"ĠSub":3903,"ĠLin":3904,"ood":3905,"Ġaspecto":3906,"Ġmusical":3907,"Ġpersonaje":3908,"ĠPaul":3909,"ĠTodo":3910,"Ġ1980":3911,"tumb":3912,"Ġadelante":3913,"ĠBla":3914,"Ġ'\"":3915,"Ġgesto":3916,"ficios":3917,"Ġtrabajar":3918,"fÃ©":3919,"ĠGobierno":3920,"tiene":3921,"ĠinvestigaciÃ³n":3922,"ĠDE":3923,"iller":3924,"Ella":3925,"ĠoÃŃdo":3926,"27":3927,"ĠsueÃ±o":3928,"Ġhier":3929,"Ġcompleto":3930,"Ġdiferencia":3931,"Ġmanif":3932,"Ġelim":3933,"ĠMunicip":3934,"uesta":3935,"cular":3936,"fil":3937,"26":3938,"ith":3939,"Ġsigue":3940,"ferencia":3941,"Ã¡ndez":3942,"Ġcontar":3943,"itario":3944,"Ġprofesor":3945,"Ġpobre":3946,"ĠVe":3947,"Ã¡tico":3948,"Ġfues":3949,"Ġimportancia":3950,"Ġvolun":3951,"ON":3952,"ĠGa":3953,"fac":3954,"ĠChina":3955,"TA":3956,"Ġconseguir":3957,"Ġadi":3958,"ĠDire":3959,"ĠGonz":3960,"tim":3961,"ĠCons":3962,"Ġsoldados":3963,"ĠjÃ³venes":3964,"Ġfac":3965,"aco":3966,"ĠquizÃ¡":3967,"tus":3968,"ĠentrÃ³":3969,"dy":3970,"Ġantigua":3971,"respondiÃ³":3972,"ĠaÃ±ad":3973,"ĠMuseo":3974,"ĠacciÃ³n":3975,"Ġmarido":3976,"Ġenfrent":3977,"Ġdios":3978,"Ġhall":3979,"Ġcuello":3980,"ĠJorge":3981,"Ġ38":3982,"Ġlarga":3983,"ĠOl":3984,"28":3985,"Ġtendr":3986,"ĠRÃŃo":3987,"eth":3988,"bil":3989,"Ġmenudo":3990,"Ġorien":3991,"rible":3992,"Ġ\"'":3993,"Ġsuces":3994,"fre":3995,"Ġteatro":3996,"Ġsup":3997,"Ġrespons":3998,"ws":3999,"Ġsiento":4000,"Ġmirando":4001,"Ġguard":4002,"Ġradio":4003,"Ġ34":4004,"uno":4005,"Ġepisodio":4006,"entemente":4007,"Ġperdido":4008,"Ġdespa":4009,"Ġllama":4010,"Ġdens":4011,"ĠVenez":4012,"Ġpregunta":4013,"Ġlimp":4014,"len":4015,"Ġnuevas":4016,"Ġ45":4017,"Ġocasiones":4018,"Ġdefin":4019,"rieron":4020,"ĠenergÃŃa":4021,"ĠInstituto":4022,"lÃŃn":4023,"gio":4024,"Ġabra":4025,"ĠDeportivo":4026,"dan":4027,"ĠÃ³":4028,"laciones":4029,"Ġconcl":4030,"Ġdivi":4031,"ĠJust":4032,"Ġguer":4033,"Ġjugador":4034,"ĠCalifornia":4035,"Ġtama":4036,"Ġinstal":4037,"quis":4038,"Ġdise":4039,"gÃ¼":4040,"cionar":4041,"Ġga":4042,"ĠEstadio":4043,"Ġpromo":4044,"Ã³l":4045,"ĠVi":4046,"ĠganÃ³":4047,"tina":4048,"ure":4049,"Ġprimeras":4050,"ister":4051,"Ġataque":4052,"Ġtraslad":4053,"ĠMen":4054,"Ġcompletamente":4055,"ath":4056,"tron":4057,"cidental":4058,"ĠFecha":4059,"ĠRobert":4060,"Ġhombros":4061,"Ġjuntos":4062,"ctores":4063,"Ġllor":4064,"Ġhubo":4065,"anda":4066,"ĠkilÃ³":4067,"sito":4068,"ĠpodÃŃan":4069,"Ġdeseo":4070,"Ġprueba":4071,"Ġtiempos":4072,"Ġmejores":4073,"Ġdescen":4074,"vor":4075,"ĠBra":4076,"Ġescon":4077,"ander":4078,"fÃŃa":4079,"Ġmulti":4080,"Ġrevista":4081,"Ġplanta":4082,"ĠJames":4083,"ĠperiÃ³":4084,"ster":4085,"cÃ³n":4086,"llos":4087,"Ġ1986":4088,"ĠrÃ¡pidamente":4089,"ĠEntonces":4090,"osos":4091,"Ġeurope":4092,"Ġcasos":4093,"ĠsiguiÃ³":4094,"OS":4095,"licaciones":4096,"ĠMos":4097,"Ġrespe":4098,"ĠOlÃŃ":4099,"ecen":4100,"ÂŃ":4101,"Ġinform":4102,"ĠHel":4103,"Ġcapacidad":4104,"Ġfecha":4105,"ĠCentral":4106,"Ġvelocidad":4107,"ĠsonriÃ³":4108,"Ġmodelo":4109,"Ġllen":4110,"Ġresta":4111,"Ġfigura":4112,"Ġprincipalmente":4113,"ierras":4114,"pez":4115,"ĠOfici":4116,"berg":4117,"andro":4118,"Ġmarcha":4119,"29":4120,"Ġ...":4121,"Ġfuturo":4122,"Ġobjetivo":4123,"Ġapoyo":4124,"ĠTele":4125,"Ġciudades":4126,"ste":4127,"cados":4128,"rÃŃ":4129,"Hab":4130,"fono":4131,"San":4132,"IN":4133,"Ġservicios":4134,"dica":4135,"gri":4136,"ichael":4137,"Ġconoce":4138,"ĠLor":4139,"ĠVilla":4140,"ĠAz":4141,"Ã¡cter":4142,"lave":4143,"Ġmuestra":4144,"ola":4145,"ĠEmp":4146,"ĠEstudi":4147,"Ġrecur":4148,"turales":4149,"ĠRich":4150,"bita":4151,"Ġfab":4152,"Ġcirc":4153,"Ġcosta":4154,"Ġcier":4155,"Ġprofesional":4156,"Ġdibu":4157,"Ġrecuer":4158,"Ġqueda":4159,"dientes":4160,"Ma":4161,"cidos":4162,"Ġmensa":4163,"lia":4164,"Ġelecciones":4165,"Ġsede":4166,"Ġactividad":4167,"ĠencontrÃ³":4168,"Ġesco":4169,"Ġpublicado":4170,"ibles":4171,"deraciÃ³n":4172,"Ġetapa":4173,"ĠFeder":4174,"ĠtelÃ©":4175,"ram":4176,"ĠdirigiÃ³":4177,"ĠRet":4178,"Ġnervi":4179,"Ġbe":4180,"gro":4181,"Ġhermos":4182,"Ġempu":4183,"Ġnecesario":4184,"Ġformas":4185,"Ġ$":4186,"Ġsencillo":4187,"Ġ60":4188,"Ġsonido":4189,"ĠcarÃ¡cter":4190,"ĠClas":4191,"Ġpaz":4192,"Ġenferme":4193,"ĠEurope":4194,"ĠGab":4195,"Ġjusto":4196,"ĠacercÃ³":4197,"Ġregist":4198,"Ġrealmente":4199,"erop":4200,"ĠapareciÃ³":4201,"rillo":4202,"ĠpequeÃ±os":4203,"Ġincre":4204,"Ġopin":4205,"Ġventa":4206,"Ġbot":4207,"itan":4208,"ĠoÃŃr":4209,"esiÃ³n":4210,"Ġrato":4211,"Ã³s":4212,"ispo":4213,"Ġcorte":4214,"Sin":4215,"EN":4216,"RA":4217,"Ã¤":4218,"Ġlibertad":4219,"vel":4220,"Ġsatis":4221,"Ġ1985":4222,"ĠDomin":4223,"Ġmol":4224,"pias":4225,"Ġexac":4226,"entado":4227,"Ġcontrario":4228,"BA":4229,"Ġconcent":4230,"anci":4231,"Ġsemanas":4232,"riste":4233,"cti":4234,"ĠcategorÃŃa":4235,"Ġ2020":4236,"Ġdul":4237,"Ġtenemos":4238,"ĠWal":4239,"Ġrecha":4240,"Ġvideo":4241,"Ġrob":4242,"ivos":4243,"Eso":4244,"vido":4245,"ĠMel":4246,"Ġdiscu":4247,"Ġbueno":4248,"ĠEquipo":4249,"ĠorganizaciÃ³n":4250,"ulo":4251,"Ġenorme":4252,"tern":4253,"Mi":4254,"laz":4255,"ĠperÃŃodo":4256,"ĠlanzÃ³":4257,"ĠocasiÃ³n":4258,"Ġjugar":4259,"Ġ1989":4260,"ĠNic":4261,"tional":4262,"ĠAmb":4263,"Ġflo":4264,"riel":4265,"ĠRusia":4266,"195":4267,"Ġcontemp":4268,"Ġverano":4269,"Ġelev":4270,"table":4271,"ÃŃstico":4272,"Ġdensidad":4273,"ĠKe":4274,"Ġnaturaleza":4275,"Ġhumanos":4276,"ĠJer":4277,"Ġescrito":4278,"ju":4279,"Ġmec":4280,"ianos":4281,"op":4282,"lÃ©tico":4283,"Ġran":4284,"ĠtamaÃ±o":4285,"Ġnecesidad":4286,"Ġchica":4287,"Ġgo":4288,"Ġextran":4289,"ĠBre":4290,"Ġ37":4291,"ĠVenezuela":4292,"Ġropa":4293,"Ġventana":4294,"Ġactor":4295,"ĠKar":4296,"Ġcondiciones":4297,"Ġhom":4298,"Ġton":4299,"ĠselecciÃ³n":4300,"enda":4301,"tell":4302,"pr":4303,"dap":4304,"cla":4305,"my":4306,"Ġpresente":4307,"ÃŃp":4308,"35":4309,"Ġocup":4310,"Ġincon":4311,"ĠWar":4312,"ticamente":4313,"Ġproces":4314,"Ġmem":4315,"jaba":4316,"ĠTiene":4317,"ĠSta":4318,"ni":4319,"esper":4320,");":4321,"ĠResultado":4322,"Ġpersonajes":4323,"Ġveh":4324,"ille":4325,"Ġopera":4326,"Entonces":4327,"ices":4328,"Ġviento":4329,"alizaciÃ³n":4330,"Ã¡nico":4331,"Ġtempor":4332,"Ġhacen":4333,"tarÃŃa":4334,"ĠSegu":4335,"Ġcocina":4336,"ĠFuer":4337,"Ġesperaba":4338,"Ġmad":4339,"ĠEso":4340,"trÃ³n":4341,"Ġtropas":4342,"ÃŃritu":4343,"isis":4344,"ĠOrden":4345,"Ġincorpor":4346,"Ġtercera":4347,"Ġpasos":4348,"80":4349,"iencias":4350,"way":4351,"mes":4352,"Ġpodemos":4353,"cripciÃ³n":4354,"Ġtercer":4355,"Ġaquello":4356,"ĠAustral":4357,"ĠAst":4358,"ense":4359,"Ġencuentro":4360,"old":4361,"Ġrelacion":4362,"Ġexistencia":4363,"villa":4364,"Ġhermanos":4365,"47":4366,"Ġelementos":4367,"Ġanimales":4368,"Ġ185":4369,"Ġcerc":4370,"ĠChrist":4371,"Ġconqu":4372,"Ġ1970":4373,"lie":4374,"ĠmÃ©dico":4375,"Ġbru":4376,"icidad":4377,"Ġfalle":4378,"ĠCer":4379,"Ġraz":4380,"ĠÂª":4381,"Ġant":4382,"Ġpueda":4383,"ĠÃŃn":4384,"Ġlong":4385,"Ã¡ndolo":4386,"Ġmando":4387,"ĠRecord":4388,"entamente":4389,"ĠUr":4390,"Ġliter":4391,"ĠformaciÃ³n":4392,"ĠmuriÃ³":4393,"Ġ1988":4394,"Ġaten":4395,"ĠConsejo":4396,"Ġpared":4397,"Ã¡nica":4398,"Ġtemas":4399,"teratura":4400,"Ġlugares":4401,"ĠSÃŃ":4402,"ticiÃ³n":4403,"erador":4404,"ÃŃtulos":4405,"Ġcultura":4406,"Ġintelig":4407,"ulas":4408,"tiz":4409,"Ġmorir":4410,"ĠCasa":4411,"Ġguitar":4412,"Ġrelaciones":4413,"33":4414,"ĠclÃ¡s":4415,"ĠdeberÃŃa":4416,"Ġpodido":4417,"todo":4418,"Ġespe":4419,"Ġexiste":4420,"Ġmemoria":4421,"mÃ¡tica":4422,"tiles":4423,"ĠpareciÃ³":4424,"gido":4425,"ĠlogrÃ³":4426,"Ġimposible":4427,"ĠBlan":4428,"ĠsensaciÃ³n":4429,"Ġintegr":4430,"Ã§":4431,"ĠÐ":4432,"Ġsuel":4433,"ÃŃda":4434,"Ġmagn":4435,"Ġ()":4436,"Ã¡ndola":4437,"Ġmomentos":4438,"Ġnu":4439,"vos":4440,"amor":4441,"Ġpiernas":4442,"grÃŃa":4443,"Ġfras":4444,"ĠSud":4445,"Ġplantas":4446,"Ġplaza":4447,"dis":4448,"Ġperteneci":4449,"Ġvictoria":4450,"Co":4451,"idencia":4452,"Ġinmedia":4453,"Ġnombrado":4454,"Ġmotivo":4455,"iados":4456,"Ġsabes":4457,"Ġhicieron":4458,"inter":4459,"Ġposteriormente":4460,"ĠmÃŃo":4461,"Ġcierta":4462,"Ġalar":4463,"utbol":4464,"Ġobjeto":4465,"ĠkilÃ³metros":4466,"Ġobtuvo":4467,"Ġtales":4468,"ĠAna":4469,"Ġtradi":4470,"Åį":4471,"Oh":4472,"Ġdeber":4473,"Ġcreer":4474,"ronce":4475,"Ġolvid":4476,"ĠJesÃºs":4477,"Ġarras":4478,"amo":4479,"Ġvivo":4480,"illos":4481,"Ġescena":4482,"Ġpresenta":4483,"ĠcatÃ³":4484,"didas":4485,"ux":4486,"36":4487,"ĠcreaciÃ³n":4488,"tismo":4489,"ramos":4490,"tino":4491,"alizado":4492,"Ġsospe":4493,"ĠProvin":4494,"Ġmue":4495,"Ġabrir":4496,"intiÃ³":4497,"Ġmismos":4498,"Ġtemb":4499,"Ġderechos":4500,"ĠJean":4501,"eropuerto":4502,"Ġemi":4503,"Ġdescan":4504,"rantes":4505,"ĠrealizÃ³":4506,"Ġelegido":4507,"ĠIV":4508,"Ġsegundos":4509,"Ġdepartamento":4510,"dice":4511,"Ġfuese":4512,"ave":4513,"Ġasunto":4514,"bia":4515,"tle":4516,"dÃ³n":4517,"CI":4518,"45":4519,"ĠPablo":4520,"mpe":4521,"Ġinfor":4522,"ĠMag":4523,"Ġtec":4524,"ĠGrupo":4525,"dicos":4526,"mÃ¡genes":4527,"Ġexcl":4528,"ĠHum":4529,"Ġpreten":4530,"ĠAndr":4531,"Ġ1987":4532,"Ġarre":4533,"Ġnor":4534,"dores":4535,"Ġmirar":4536,"ĠHan":4537,"exclamÃ³":4538,"Que":4539,"Para":4540,"ĠBern":4541,"Ġ/":4542,"Ġdefen":4543,"ĠprÃŃncipe":4544,"Ġgeo":4545,"Ġcandida":4546,"Ġexperiencia":4547,"ĠTodos":4548,"Ġps":4549,"ĠEnrique":4550,"Ġdesn":4551,"ĠMonte":4552,"Ġrepro":4553,"lada":4554,"Ġesperar":4555,"ĠdecisiÃ³n":4556,"Ġcomida":4557,"Ġescribir":4558,"ĠSÃ³lo":4559,"lora":4560,"Ãºl":4561,"ĠActu":4562,"Ġdra":4563,"guas":4564,"ĠVan":4565,"Ġtard":4566,"Ġhubiese":4567,"Ġactriz":4568,"ĠMedi":4569,"umen":4570,"Ġhumano":4571,"Ġcantante":4572,"ĠMichael":4573,"urm":4574,"Ġade":4575,"Ġencontrado":4576,"Ġquieres":4577,"Ġadap":4578,"Ġreina":4579,"Ġadqui":4580,"Ġbusca":4581,"Ġmaterial":4582,"ĠPub":4583,"Ġbon":4584,"Ġmercado":4585,"Ġvin":4586,"48":4587,"Ġdiversos":4588,"ruguay":4589,"ĠfrÃŃo":4590,"raba":4591,"Ġhabitu":4592,"ĠdiseÃ±":4593,"Ġrealizar":4594,"Ġambas":4595,"Ġagra":4596,"Ġdando":4597,"tedr":4598,"Ġbarrio":4599,"Ġmexic":4600,"izado":4601,"Ġ80":4602,"ĠSocial":4603,"OR":4604,"Ġgusta":4605,"Ã©ctr":4606,"ony":4607,"esta":4608,"Ġposibilidad":4609,"ĠAcademia":4610,"itÃ©":4611,"ĠCity":4612,"ĠescribiÃ³":4613,"Ġ[":4614,"pal":4615,"Ġexterior":4616,"Ġ39":4617,"Ġborde":4618,"ling":4619,"Ġbene":4620,"abas":4621,"uales":4622,"Ġtierras":4623,"Ġestructura":4624,"Ġotor":4625,"zz":4626,"Ġveinte":4627,"Ġcircun":4628,"gip":4629,"ĠtelÃ©fono":4630,"ĠdÃ³":4631,"ĠDar":4632,"augu":4633,"etas":4634,"Ġimper":4635,"Ġadop":4636,"Ah":4637,"Ġdije":4638,"Ġextremo":4639,"Ġhar":4640,"ĠtendrÃŃa":4641,"Ġdestino":4642,"guez":4643,"Ġdetuvo":4644,"ĠAtlÃ©tico":4645,"Ġcontacto":4646,"Ġ\".":4647,"ess":4648,"diat":4649,"ĠSalv":4650,"Ġtrataba":4651,"37":4652,"burgo":4653,"gentino":4654,"fonso":4655,"ĠcampaÃ±a":4656,"icales":4657,"Com":4658,"60":4659,"ĠImperio":4660,"Ġhogar":4661,"ĠEjÃ©rcito":4662,"39":4663,"Ġrojo":4664,"Ã£":4665,"Ġincluyendo":4666,"Ġoportunidad":4667,"Ã³pez":4668,"ĠnaciÃ³":4669,"net":4670,"Ġpuedes":4671,"vidad":4672,"Ġsituado":4673,"Ã±ado":4674,"denes":4675,"Ġestuviera":4676,"ĠÃ¡rboles":4677,"Ġpermite":4678,"ĠJim":4679,"inada":4680,"venida":4681,"Ġverde":4682,"Ġentender":4683,"Ġprecis":4684,"Ġcalor":4685,"Ġpeso":4686,"Ġsosten":4687,"irma":4688,"Ġdemostr":4689,"lex":4690,"Ġdirectamente":4691,"ĠTV":4692,"rida":4693,"mul":4694,"ĠcÃ¡":4695,"Ġpuertas":4696,"deras":4697,"Ġcolon":4698,"Ġobstante":4699,"Ġinaugu":4700,"Ġcic":4701,"Ġblo":4702,"ĠtÃŃo":4703,"roso":4704,"Ġaprove":4705,"ĠAp":4706,"Ġrecibir":4707,"Ġaguas":4708,"Ġtren":4709,"QuiÃ©n":4710,"deres":4711,"quÃŃa":4712,"Ġcasas":4713,"Ġdic":4714,"Ġdoble":4715,"ĠDaniel":4716,"ĠIr":4717,"Ġ32":4718,"Ġcomunidad":4719,"Ġclasific":4720,"Ġaquellas":4721,"Ġtriste":4722,"'),":4723,"Ġprobablemente":4724,"Ġhue":4725,"rac":4726,"ella":4727,"mann":4728,"Ġarreg":4729,"Ġpropie":4730,"Ġestra":4731,"olÃ³gico":4732,"Era":4733,"Ã³rdo":4734,"Ġaudi":4735,"ĠlÃ¡g":4736,"Ġagar":4737,"Ġhel":4738,"Ġcaballo":4739,"Ġsalida":4740,"ugh":4741,"Ġ1984":4742,"Ġparecer":4743,"Ġmascul":4744,"Ġactividades":4745,"Ġacus":4746,"Ġdescar":4747,"contestÃ³":4748,"imen":4749,"dentes":4750,"Ġpros":4751,"Ġcenso":4752,"ĠCastilla":4753,"ĠLÃ³pez":4754,"chaba":4755,"IS":4756,"ishes":4757,"ĠMur":4758,"Ã±Ã³":4759,"Ġign":4760,"isla":4761,"Ġ500":4762,"manes":4763,"ĠVis":4764,"Ġmara":4765,"Ġrepe":4766,"Ġsust":4767,"ĠGeografÃŃa":4768,"ĠAlej":4769,"tieron":4770,"amp":4771,"Enlaces":4772,"Ġideas":4773,"ides":4774,"Ġescapar":4775,"ville":4776,"Ġvestido":4777,"ribuy":4778,"tol":4779,"Ġactualmente":4780,"Ġencen":4781,"ĠIsabel":4782,"Ġcamp":4783,"ĠLat":4784,"ĠTemp":4785,"ĠeducaciÃ³n":4786,"Ġsum":4787,"ĠEscuela":4788,"Ġiban":4789,"Ġlongitud":4790,"Ġdisfru":4791,"Ġinfan":4792,"tz":4793,"itante":4794,"Ġvuelto":4795,"ienes":4796,"38":4797,"FA":4798,"Ġubicada":4799,"Ġcastillo":4800,"He":4801,"Ã¡ndome":4802,"Ġexig":4803,"Ġsob":4804,"ficaciÃ³n":4805,"diatamente":4806,"Ġreconoc":4807,"Ġadmi":4808,"dito":4809,"Ġaj":4810,"ĠArm":4811,"ĠBos":4812,"Ġfas":4813,"Ġaus":4814,"Ġderi":4815,"dri":4816,"uros":4817,"remos":4818,"Ġfeliz":4819,"chando":4820,"Ġmayores":4821,"Ġtorneo":4822,"Ġpremio":4823,"ude":4824,"naciÃ³n":4825,"ife":4826,"Ġtrabajos":4827,"Ġzonas":4828,"como":4829,"ĠFelipe":4830,"ĠfunciÃ³n":4831,"ĠBill":4832,"ĠconsiguiÃ³":4833,"Ġlad":4834,"Ãīl":4835,"Ġrecuerdo":4836,"Ã¡bamos":4837,"Ġ70":4838,"Ġbomb":4839,"ĠUS":4840,"ĠJac":4841,"rey":4842,"rael":4843,"Ġapa":4844,"rimas":4845,"adura":4846,"ĠMis":4847,"Ġcalles":4848,"Ġsilla":4849,"ĠdiseÃ±o":4850,"Ġcombate":4851,"Ġ(\"":4852,"Ġdue":4853,"tions":4854,"Ġllegada":4855,"Ġconden":4856,"Ã¡lisis":4857,"metro":4858,"Ġpensamiento":4859,"Ġred":4860,"mej":4861,"Ġaun":4862,"ilidades":4863,"EL":4864,"izada":4865,"ĠrÃ¡pido":4866,"Ġvari":4867,"Ġ1982":4868,"Ġllega":4869,"Ġdefensa":4870,"ĠNotas":4871,"aj":4872,"ĠPortu":4873,"Ġpeor":4874,"izar":4875,"Ġflores":4876,"Ġdesconoci":4877,"ĠOro":4878,"ami":4879,"Ġcuidado":4880,"Bueno":4881,"Ġ1983":4882,"ragÃ³n":4883,"uÃ±a":4884,"ĠterminÃ³":4885,"Ġsimplemente":4886,"ĠPÃ©":4887,"aso":4888,"Ġdesign":4889,"isp":4890,"Ġpiso":4891,"ield":4892,"ĠdivisiÃ³n":4893,"Ġatre":4894,"Ã³rdoba":4895,"Ġpensaba":4896,"iaciÃ³n":4897,"olina":4898,"ĠLou":4899,"cero":4900,"Ġrepresenta":4901,"anzas":4902,"ĠpelÃŃculas":4903,"Ġsustitu":4904,"Ġacceso":4905,"Ġdemo":4906,"Ġtecn":4907,"ĠOc":4908,"icciÃ³n":4909,"ĠconversaciÃ³n":4910,"mith":4911,"Ġsacerdo":4912,"ĠRi":4913,"Ġtreinta":4914,"Ha":4915,"ĠteorÃŃa":4916,"vista":4917,"Ġpropiedad":4918,"ĠcafÃ©":4919,"Ġpeligro":4920,"Ġdefini":4921,"Ġformar":4922,"ĠSant":4923,"Ġhablando":4924,"uma":4925,"34":4926,"gin":4927,"Ġjud":4928,"ĠDos":4929,"Ġdesempe":4930,"ficul":4931,"Ġacar":4932,"Jo":4933,"Ġrecom":4934,"Ġministro":4935,"Ġcarne":4936,"rÃŃan":4937,"Ġilum":4938,"Ġmencion":4939,"Ġbosque":4940,"Ġdecl":4941,"ĠestÃ©":4942,"Ġdescrib":4943,"Ġdiversas":4944,"ĠcÃ³":4945,"Ġza":4946,"Ġcm":4947,"pero":4948,"ĠGeorge":4949,"Ġperiodi":4950,"ĠimÃ¡genes":4951,"ĠcuestiÃ³n":4952,"digo":4953,"ĠOlÃŃmpicos":4954,"logÃŃa":4955,"Pues":4956,"Ã¡lez":4957,"ĠparticipÃ³":4958,"Ġescul":4959,"Ġfig":4960,"Ġlic":4961,"ĠLey":4962,"Ġestamos":4963,"Ġllu":4964,"Ġblanca":4965,"ĠespÃŃritu":4966,"Ġautom":4967,"ze":4968,"Ġsorpres":4969,"ĠFrank":4970,"Ġdificul":4971,"Ġsemej":4972,"Ġsimilar":4973,"Ġvuelve":4974,"Ġfres":4975,"Ġleer":4976,"Ġcolum":4977,"Ġsituada":4978,"Ð°":4979,"osas":4980,"iÃ©ndose":4981,"ĠHasta":4982,"Ġcans":4983,"Ġrestos":4984,"Ġ1960":4985,"Ġatraves":4986,"Ġgrave":4987,"Ġtem":4988,"Ġvamos":4989,"70":4990,"Ġblancos":4991,"Ġhabla":4992,"ĠVo":4993,"Ġencant":4994,"Ġasc":4995,"ĠCongreso":4996,"alu":4997,"Ġcarretera":4998,"Ġreferencia":4999,"Ġsalva":5000,"orth":5001,"ĠGan":5002,"torno":5003,"Ġabo":5004,"idi":5005,"Ġfrancesa":5006,"Ġgris":5007,"AL":5008,"Ġamp":5009,"ĠvÃŃcti":5010,"Ġtotalmente":5011,"Ġrevel":5012,"Ġcomand":5013,"alizar":5014,"carse":5015,"ĠGonzÃ¡lez":5016,"Ġaver":5017,"Ġflu":5018,"lÃ¡n":5019,"ioso":5020,"Ġbols":5021,"ĠAustralia":5022,"Ġpase":5023,"Ġvolv":5024,"Ġperiodo":5025,"Ġinfluencia":5026,"Ġameric":5027,"ĠartÃŃculo":5028,"ĠPlan":5029,"mina":5030,"ĠFestival":5031,"Ġcereb":5032,"pirÃ³":5033,"Ġacto":5034,"\"'":5035,"ĠpequeÃ±as":5036,"ĠMartin":5037,"Ġmotor":5038,"Ġincluye":5039,"ĠBot":5040,"tara":5041,"Ã¡is":5042,"ĠÃ©sta":5043,"ĠTrans":5044,"49":5045,"Ġterror":5046,"Ġcolec":5047,"para":5048,"cher":5049,"Ã£o":5050,"Ġcen":5051,"ÃŃsimo":5052,"ĠDere":5053,"Ġpermit":5054,"ĠextraÃ±o":5055,"ĠCosta":5056,"Ã¡ticos":5057,"ĠAir":5058,"enario":5059,"dias":5060,"itada":5061,"Ġavent":5062,"31":5063,"Ġpis":5064,"Ġsolu":5065,"Ġdiciendo":5066,"vera":5067,"licos":5068,"ĠSar":5069,"Ġmilitares":5070,"ĠlÃŃneas":5071,"leta":5072,"46":5073,"ĠDiego":5074,"Ġpermitir":5075,"pin":5076,"Ġoficiales":5077,"Ġtesti":5078,"Ġingles":5079,"Ġrepente":5080,"Ġano":5081,"ĠintenciÃ³n":5082,"Ġdiferente":5083,"Ġinterna":5084,"piraciÃ³n":5085,"Ġarquitec":5086,"Ġcanal":5087,"Pro":5088,"Ġfiesta":5089,"chada":5090,"ĠKo":5091,"aller":5092,"leo":5093,"Ġrebel":5094,"Ġmoles":5095,"Ġfase":5096,"Ġvesti":5097,"ague":5098,"Ġ90":5099,"plicÃ³":5100,"Ġmala":5101,"Lu":5102,"Ġnub":5103,"ĠlÃ¡grimas":5104,"amÃ©rica":5105,"gados":5106,"Ġmetal":5107,"ĠâĢ":5108,"Ġcontes":5109,"Ġconflic":5110,"ueva":5111,"ij":5112,"Ġnombres":5113,"vie":5114,"ku":5115,"ĠValencia":5116,"Ġfrom":5117,"ĠWe":5118,"teras":5119,"esÃŃa":5120,"Ġ1981":5121,"dimiento":5122,"Ġllegaron":5123,"gaba":5124,"32":5125,"yectoria":5126,"eme":5127,"avier":5128,"Ġdeja":5129,"estr":5130,"ĠPon":5131,"Ġtriun":5132,"Ġdejando":5133,"ĠllamÃ³":5134,"ĠYou":5135,"Ġtexto":5136,"ĠcientÃŃf":5137,"caron":5138,"ĠRafa":5139,"Ġconocimiento":5140,"Ġdicha":5141,"ĠEspa":5142,"ĠSen":5143,"deros":5144,"Ġoscuro":5145,"rial":5146,"icul":5147,"Ġprom":5148,"ĠSolo":5149,"ĠClar":5150,"Pa":5151,"Ġfundad":5152,"Ġferro":5153,"ĠjardÃŃn":5154,"Ġitaliano":5155,"ĠDef":5156,"ĠAnti":5157,"ĠPrin":5158,"Ġcoment":5159,"Ġdarle":5160,"ĠOri":5161,"Ġbaj":5162,"Ġsecreto":5163,"ĠPuerto":5164,"bida":5165,"Ġruido":5166,"Ġdan":5167,"Ġmundial":5168,"Ġtes":5169,"Ġreemp":5170,"rom":5171,"ĠparticipaciÃ³n":5172,"ĠEstos":5173,"Ġdoc":5174,"Ġalcanzar":5175,"Ġnuevamente":5176,"Per":5177,"rales":5178,"Ġdistingu":5179,"ĠpolÃŃticos":5180,"ĠDÃŃa":5181,"Ġ1979":5182,"ĠCub":5183,"uelta":5184,"Ġarran":5185,"quie":5186,"Ġviene":5187,"ĠAlfonso":5188,"Ġposi":5189,"Ġhechos":5190,"ĠOn":5191,"Ġdientes":5192,"ĠcuÃ¡n":5193,"Ġbarco":5194,"90":5195,"Ġobtener":5196,"ĠTour":5197,"gando":5198,"amin":5199,"Ġchico":5200,"ĠCÃ³rdoba":5201,"ĠpublicÃ³":5202,"Ġater":5203,"terio":5204,"ĠmisiÃ³n":5205,"cÃ³mo":5206,"lem":5207,"âĢ¦,":5208,"ĠpÃ©r":5209,"Ġanci":5210,"Ġinterrump":5211,"ĠLista":5212,"eria":5213,"ĠPu":5214,"Ġmm":5215,"eda":5216,"ĠAlgunos":5217,"Ġescuchar":5218,"Ġhun":5219,"ĠcontinuaciÃ³n":5220,"Ġprima":5221,"Ġflor":5222,"Ġmiraba":5223,"ume":5224,"Ġrock":5225,"abes":5226,"Ġpropios":5227,"Ġquedado":5228,"Ġllamar":5229,"Ġpuente":5230,"ĠEse":5231,"ses":5232,"ĠIncl":5233,"Ġoscuridad":5234,"Ġhumana":5235,"Ġsociales":5236,"Ġcompuesto":5237,"Ġalcan":5238,"ĠcayÃ³":5239,"Ġpareja":5240,"Ġpena":5241,"Ġquedaba":5242,"Como":5243,"Ġpele":5244,"Ġmodi":5245,"ast":5246,"drÃŃ":5247,"zan":5248,"ĠdÃ³lares":5249,"Ġcalidad":5250,"Ġdesl":5251,"ike":5252,"izÃ³":5253,"Ġsentado":5254,"ĠCe":5255,"Ġesperando":5256,"itz":5257,"ĠcaÃ±":5258,"Ġcrear":5259,"Ġhojas":5260,"ĠCat":5261,"ĠPresidente":5262,"ĠDemografÃŃa":5263,"venciÃ³n":5264,"cÃ¡n":5265,"Ġnacionales":5266,"Ġactualidad":5267,"ĠYu":5268,"Ġascen":5269,"Ġpruebas":5270,"ĠRichard":5271,"quÃ©s":5272,"ĠUno":5273,"Ġpensando":5274,"ĠEcu":5275,"ĠSanto":5276,"tador":5277,"Ġhombro":5278,"Ġgira":5279,"AsÃŃ":5280,"Ġsopor":5281,"ĠÃ³rdenes":5282,"Ġparque":5283,"uelas":5284,"ĠTeatro":5285,"Ġfus":5286,"ĠanunciÃ³":5287,"Ġduque":5288,"Ġparticipar":5289,"ĠFernÃ¡ndez":5290,"ĠWa":5291,"Ġoper":5292,"Ġdiver":5293,"ĠSue":5294,"ecÃŃan":5295,"Ġllevado":5296,"ĠAllÃŃ":5297,"Ġplacer":5298,"ĠSem":5299,"Ġesfuerzo":5300,"ek":5301,"ĠelÃ©ctr":5302,"Ġcompon":5303,"ĠIndia":5304,"ĠVie":5305,"ĠmÃŃn":5306,"ĠFal":5307,"Ġidi":5308,"ĠconocÃŃa":5309,"irmÃ³":5310,"ĠTan":5311,"Gra":5312,"ionales":5313,"Ġpueblos":5314,"drÃŃguez":5315,"Ġpp":5316,"sus":5317,"igue":5318,"ĠHor":5319,"Ġaplic":5320,"osamente":5321,"ĠsalÃ³n":5322,"Ġespera":5323,"pida":5324,"ĠopiniÃ³n":5325,"lÃ³":5326,"ribun":5327,"Ã³logo":5328,"ĠCD":5329,"Ġcompro":5330,"Ġestren":5331,"ĠpÃºblica":5332,"Ġsiglos":5333,"vado":5334,"Ġciencia":5335,"ĠCada":5336,"gi":5337,"vio":5338,"torios":5339,"Ġpagar":5340,"ĠÃģfrica":5341,"teo":5342,"Ġaust":5343,"Ġsobrevi":5344,"Ġreino":5345,"Ġnuestras":5346,"Ġsolici":5347,"Ġamist":5348,"Ġganar":5349,"Ãł":5350,"ĠStar":5351,"Ġvisita":5352,"ings":5353,"Ġolvi":5354,"ĠcomunicaciÃ³n":5355,"ĠpresentÃ³":5356,"ĠTar":5357,"puso":5358,"Ġtorno":5359,"ĠRodrÃŃguez":5360,"Ġcontigo":5361,"Ġrodi":5362,"ĠTotal":5363,"risis":5364,"Ġalcal":5365,"Ġpedir":5366,"Ġquerido":5367,"ĠTro":5368,"ĠPÃ©rez":5369,"bla":5370,"Ã³nimo":5371,"Ġfantas":5372,"ĠcompaÃ±eros":5373,"ĠIndepen":5374,"44":5375,"Ġdormir":5376,"Ġ1976":5377,"Ġurb":5378,"ieza":5379,"Ġprotes":5380,"Ahora":5381,"ĠcampeÃ³n":5382,"Ġtemplo":5383,"Ġintens":5384,"Ġserio":5385,"Ġnueve":5386,"up":5387,"Ġpalacio":5388,"Ġselec":5389,"ayo":5390,"tom":5391,"dro":5392,"desa":5393,"Ã©tico":5394,"Ġasust":5395,"Ġexpe":5396,"Ġdirigida":5397,"Ġfirme":5398,"Ġtorre":5399,"Ġenfermedad":5400,"Ġamiga":5401,"Ġsecund":5402,"utbolista":5403,"Ġinmediatamente":5404,"ĠespaÃ±oles":5405,"Ġtum":5406,"mental":5407,"Ġfacil":5408,"Ġanimal":5409,"olas":5410,"Ġfuente":5411,"ĠechÃ³":5412,"Ġaproximadamente":5413,"Ġartista":5414,"ĠMy":5415,"Ġpasando":5416,"ĠPÃ¡g":5417,"Ġidentific":5418,"kin":5419,"ĠTim":5420,"Ġ1978":5421,"ĠSha":5422,"Ġfinanci":5423,"Ġhospital":5424,"Ġconstante":5425,"ĠThomas":5426,"Ġ46":5427,"ĠasintiÃ³":5428,"lima":5429,"ĠInf":5430,"Ġalum":5431,"Ġsorpresa":5432,"Ġfamiliar":5433,"Ġcomprender":5434,"Ġcambiar":5435,"Ġmaestro":5436,"Ġinferior":5437,"ges":5438,"Ġestim":5439,"Ġrefug":5440,"tantes":5441,"Ġcree":5442,"Ġpilo":5443,"Ġpuerto":5444,"ivia":5445,"ĠCenso":5446,"entales":5447,"ierte":5448,"dea":5449,"ducciÃ³n":5450,"nal":5451,"Ġfrontera":5452,"tte":5453,"Ġverdadera":5454,"ĠComun":5455,"edor":5456,"Ġjuegos":5457,"onal":5458,"Ġcolores":5459,"Ġtempera":5460,"well":5461,"Ã©ro":5462,"ĠPlata":5463,"Ġprodujo":5464,"grado":5465,"Ġadecu":5466,"Ġconsecu":5467,"cus":5468,"Ġbronce":5469,"Ġconsiderado":5470,"Ġilust":5471,"Ã±ar":5472,"Ex":5473,"ĠCl":5474,"Ġargu":5475,"Ġinca":5476,"ius":5477,"emas":5478,"ĠPac":5479,"mite":5480,"ium":5481,"ivamente":5482,"ĠSmith":5483,"Ġcorriente":5484,"Ġanteriores":5485,"ĠSitio":5486,"Ġayudar":5487,"teros":5488,"Ã¡tica":5489,"Ġliteratura":5490,"Ġregreso":5491,"Ġconvenci":5492,"Pue":5493,"ĠVI":5494,"aboraciÃ³n":5495,"Ġdeben":5496,"ĠTre":5497,"ordin":5498,"ĠTri":5499,"Ġresultados":5500,"ĠcontinuÃ³":5501,"Ġjur":5502,"Ġquis":5503,"Ġ'(":5504,"Ġbiblio":5505,"leza":5506,"peraciÃ³n":5507,"Ġarque":5508,"Ġconvertido":5509,"anes":5510,"Ġtocar":5511,"ĠValle":5512,"jeron":5513,"ĠAlberto":5514,"Ġestrellas":5515,"Ġposterior":5516,"chez":5517,"Ġobjetos":5518,"Ġarma":5519,"Ð¾":5520,"aces":5521,"Ġnegra":5522,"ics":5523,"ĠLar":5524,"Ġclases":5525,"Ġdor":5526,"Ġ48":5527,"ĠrÃ©":5528,"Ġfrecu":5529,"Ġses":5530,"sociaciÃ³n":5531,"Ġartistas":5532,"Ġabierto":5533,"%)":5534,"Ġesperanza":5535,"ĠLeg":5536,"Ġdigo":5537,"Ġgobernador":5538,"Ġcrim":5539,"Ãģ":5540,"Ġlanzado":5541,"ĠlÃ¡":5542,"ĠPremios":5543,"ĠMich":5544,"ĠRic":5545,"Ġgir":5546,"Ġconsidera":5547,"Ġsistemas":5548,"Ġemperador":5549,"Ġvoluntad":5550,"Man":5551,"tedral":5552,"Ġenga":5553,"ĠEmil":5554,"ĠLes":5555,"ĠvisiÃ³n":5556,"ĠConstitu":5557,"Ġtoma":5558,"rimiento":5559,"Ġbreve":5560,"Ġequivo":5561,"Ġmarca":5562,"Ġmuertos":5563,"Ġterreno":5564,"75":5565,"wer":5566,"Ġhotel":5567,"Ġenemigo":5568,"Ġislas":5569,"ĠArte":5570,"ĠNunca":5571,"42":5572,"Ġveo":5573,"tri":5574,"].":5575,"Ġcurso":5576,"ĠAquel":5577,"Ġ1975":5578,"Ġabierta":5579,"Ġgig":5580,"Ã¡lo":5581,"Ġconcre":5582,"So":5583,"Ġtuvieron":5584,"dol":5585,"gica":5586,"Ġ1977":5587,"ĠStu":5588,"lvar":5589,"din":5590,"bito":5591,"Ġape":5592,"Cap":5593,"Ġcircu":5594,"ĠprÃ¡ctica":5595,"ĠUruguay":5596,"Ġ1973":5597,"EstÃ¡":5598,"ĠraÃŃ":5599,"ĠcreÃŃa":5600,"ĠPortugal":5601,"ĠInv":5602,"ĠPl":5603,"Ġcontempl":5604,"ĠBat":5605,"crÃ¡":5606,"Ġdesen":5607,"Ġproporcion":5608,"78":5609,"Ġasomb":5610,"Ġvenido":5611,"cuenta":5612,"ĠAntes":5613,"Ġimporta":5614,"unta":5615,"quez":5616,"ĠseÃ±orita":5617,"Ġcolabor":5618,"elos":5619,"olucion":5620,"Ġcaballos":5621,"rente":5622,"'\"":5623,"Ġpreguntas":5624,"Ġconsecuencia":5625,"Ġsolamente":5626,"Ġcatal":5627,"Ne":5628,"Ġhues":5629,"ĠcÃ¡mara":5630,"ĠSecre":5631,"Ġirre":5632,"Ġignor":5633,"tun":5634,"rarse":5635,"Ã©sar":5636,"Ġalguno":5637,"Ġries":5638,"Ġdiario":5639,"ĠXVIII":5640,"alizada":5641,"piro":5642,"Pre":5643,"Ġproductos":5644,"ervaciÃ³n":5645,"ĠVar":5646,"Ġtipos":5647,"ory":5648,"Ġsector":5649,"ĠSebas":5650,"ezas":5651,"ĠBerlÃŃn":5652,"Ġronda":5653,"Ġsacu":5654,"Ġaco":5655,"ĠVas":5656,"caso":5657,"cara":5658,"Ġnoches":5659,"ĠLocal":5660,"inato":5661,"llar":5662,"loj":5663,"ato":5664,"itados":5665,"ĠlÃŃder":5666,"Ġcambios":5667,"Ġconsul":5668,"Ġterrible":5669,"Ġcorrer":5670,"quiv":5671,"ĠBlack":5672,"Ġlentamente":5673,"ĠPens":5674,"Ġasoci":5675,"Ã©st":5676,"ĠMary":5677,"Ġjugadores":5678,"Sal":5679,"Ġdescubierto":5680,"ĠPÃ¡gina":5681,"ons":5682,"ventud":5683,"Ġsalvo":5684,"Ġunidad":5685,"ĠVictoria":5686,"Ġparedes":5687,"Ġcubierta":5688,"Ġcontiene":5689,"Ġchil":5690,"ĠRecords":5691,"Ġpantal":5692,"ĠLeon":5693,"Ġepisodios":5694,"wood":5695,"Ġcomunic":5696,"inaba":5697,"Ġsem":5698,"Ġmediados":5699,"cimientos":5700,"Ġorgu":5701,"Ġgrado":5702,"ĠsentÃ³":5703,"Ġ180":5704,"clo":5705,"Ġge":5706,"ĠGuad":5707,"till":5708,"ĠdaÃ±o":5709,"Ġcomercial":5710,"Ġnecesitaba":5711,"Ġmatar":5712,"Ġmasa":5713,"ĠArtes":5714,"ĠSevilla":5715,"Ġdom":5716,"ĠperdiÃ³":5717,"Ġ55":5718,"Ġhablaba":5719,"Ġcomienza":5720,"Ġkg":5721,"pla":5722,"AM":5723,"Ġcircunst":5724,"amble":5725,"Ġintento":5726,"Ġperteneciente":5727,"Ġinquie":5728,"Ġdefens":5729,"43":5730,"Ġacarici":5731,"taria":5732,"selo":5733,"Ġtex":5734,"Ġojo":5735,"ĠSara":5736,"Ġremo":5737,"ĠPress":5738,"41":5739,"Ġmuchacho":5740,"tividad":5741,"Ġdistintos":5742,"ĠregresÃ³":5743,"ĠcÃ¡l":5744,"ivas":5745,"ĠMartÃŃnez":5746,"Ġmover":5747,"Ġ1974":5748,"olÃ³gica":5749,"fas":5750,"Ġconciencia":5751,"Ġnormal":5752,"ĠRed":5753,"ĠCanadÃ¡":5754,"Ġfunda":5755,"ĠPhil":5756,"its":5757,"Ġocurrido":5758,"tual":5759,"ĠEm":5760,"Ġseguido":5761,"Ġcreado":5762,"urante":5763,"uf":5764,"Ġcarga":5765,"ĠTraba":5766,"ĠOtros":5767,"ĠRafael":5768,"itaria":5769,"Ġdoce":5770,"osofÃŃa":5771,"Ġculpa":5772,"Ġmovimientos":5773,"Ġentra":5774,"ement":5775,"Ġretra":5776,"Ġcultural":5777,"reras":5778,"Ġmuchacha":5779,"ĠreciÃ©n":5780,"ecieron":5781,"Ġcomis":5782,"ĠNos":5783,"into":5784,"cidas":5785,"Ġmic":5786,"Ãºtil":5787,"Ġedificios":5788,"ani":5789,"licas":5790,"Ġsome":5791,"Ġcontenido":5792,"Ġsuya":5793,"Ġinicia":5794,"uta":5795,"Ġfrances":5796,"Ġevidente":5797,"Ġinmediato":5798,"Ġconec":5799,"Ġpasaba":5800,"allado":5801,"ann":5802,"ĠParti":5803,"Ġvigil":5804,"vaciÃ³n":5805,"abil":5806,"Ġposee":5807,"ĠActualmente":5808,"Ġpocas":5809,"Ġlocales":5810,"ĠEcon":5811,"anÃŃa":5812,"ĠLima":5813,"Ġusar":5814,"ĠCharles":5815,"ienta":5816,"Ġterminar":5817,"atas":5818,"Ġrin":5819,"ÃŃdos":5820,"jera":5821,"ĠSelecciÃ³n":5822,"Ġcaja":5823,"terrÃ¡n":5824,"BC":5825,"Ġsimp":5826,"ĠGol":5827,"Ġcartas":5828,"Ġprefer":5829,"ĠÃģlvar":5830,"Ġpista":5831,"Ġdulce":5832,"ED":5833,"ĠBoy":5834,"Ġfen":5835,"Ġprecisamente":5836,"Ġefectos":5837,"Ġapres":5838,"trando":5839,"orÃŃas":5840,"Ġcho":5841,"tades":5842,"enos":5843,"Ġlago":5844,"Ġdesem":5845,"Ġverdadero":5846,"ambre":5847,"ĠXVI":5848,"eck":5849,"Ġsof":5850,"ĠbÃ¡s":5851,"ĠEp":5852,"ĠSebasti":5853,"Ġempresas":5854,"grÃ¡fico":5855,"Ġantiguos":5856,"Ġvieja":5857,"untamiento":5858,"Ġ1972":5859,"ĠPopular":5860,"gencia":5861,"ĠTÃŃtulo":5862,"izÃ¡s":5863,"Ġfrecuencia":5864,"ublic":5865,"ĠvÃŃa":5866,"Ġdistintas":5867,"ĠCiencias":5868,"Ġnoticias":5869,"vino":5870,"tamiento":5871,"Ġ1968":5872,"mun":5873,"Ġraza":5874,"Ġcau":5875,"reros":5876,"Ġcurios":5877,"gues":5878,"Ġllena":5879,"ĠDeb":5880,"ĠVil":5881,"Ġcha":5882,"Ġartes":5883,"Ġdesgra":5884,"quer":5885,"Ġtanta":5886,"ÃŃb":5887,"Ġcincuenta":5888,"illermo":5889,"ĠMinisterio":5890,"Ġalej":5891,"Ġfabric":5892,"Ġrazas":5893,"ĠSÃ¡n":5894,"Ġhal":5895,"ĠGil":5896,"edi":5897,"Ġnumerosos":5898,"Ġmensaje":5899,"Ġresi":5900,"Ġpunta":5901,"Ġrue":5902,"ĠcogiÃ³":5903,"Ġmarch":5904,"Ġfamilias":5905,"ĠCham":5906,"adable":5907,"IA":5908,"Ġresulta":5909,"Ġrealizado":5910,"ĠmÃŃa":5911,"ĠVirgen":5912,"ĠhacÃŃan":5913,"Ġ49":5914,"Ġenv":5915,"Ġadul":5916,"ĠRol":5917,"anta":5918,"Ġsombra":5919,"Ġmet":5920,"ĠFinalmente":5921,"Ġglo":5922,"Ġfundam":5923,"ĠAlejandro":5924,"ĠreÃŃr":5925,"Ġlleno":5926,"Ġfis":5927,"hal":5928,"ates":5929,"Ġregresar":5930,"cadas":5931,"Ġanunci":5932,"ĠOficina":5933,"ĠMayor":5934,"ĠBea":5935,"tua":5936,"rana":5937,"Ġfol":5938,"ĠAgu":5939,"ĠcaracterÃŃsticas":5940,"yl":5941,"Ġmanifes":5942,"Ġdipu":5943,"sin":5944,"Ġexisten":5945,"Ġexactamente":5946,"lamento":5947,"Ġsuyo":5948,"ĠHam":5949,"Ġocurre":5950,"Ġparro":5951,"Ġocupar":5952,"ĠBl":5953,"ey":5954,"ĠAmeric":5955,"Ġgor":5956,"Ġbuscando":5957,"ĠCÃ©sar":5958,"cultad":5959,"Ġconsist":5960,"Ġ1950":5961,"Ġganado":5962,"enti":5963,"Ġ47":5964,"Ġportu":5965,"Ġtranquil":5966,"Ġconvo":5967,"Ġ75":5968,"Ã¡fico":5969,"undaciÃ³n":5970,"Ġaconte":5971,"ĠCÃ¡":5972,"adÃ©m":5973,"Ã±ez":5974,"Ġgoles":5975,"sal":5976,"ĠFicha":5977,"Ġmunicipal":5978,"ĠRoy":5979,"Ġmantuvo":5980,"ashington":5981,"Ġrecibido":5982,"Ġtratar":5983,"Ġpaci":5984,"mir":5985,"ĠpidiÃ³":5986,"pertura":5987,"ĠAsociaciÃ³n":5988,"ĠsacÃ³":5989,"Ġcadena":5990,"alizÃ³":5991,"ĠSÃ¡nchez":5992,"ania":5993,"Ġvuelo":5994,"Ġplante":5995,"ball":5996,"ĠDra":5997,"eos":5998,"Ġclav":5999,"ĠNuevo":6000,"Ġmira":6001,"Ġrab":6002,"Ġformado":6003,"Ġvalle":6004,"tral":6005,"Ġben":6006,"ĠtÃŃp":6007,"marÃ©s":6008,"mado":6009,"Ġasum":6010,"ĠparecÃŃan":6011,"Ġusu":6012,"ĠAustria":6013,"usto":6014,"grama":6015,"ismos":6016,"Ġalterna":6017,"mol":6018,"Ġacciones":6019,"Ã³sito":6020,"ĠPri":6021,"ĠSalvador":6022,"ĠGabriel":6023,"ĠmontaÃ±a":6024,"win":6025,"Ġfines":6026,"cola":6027,"2007":6028,"Ġacce":6029,"ĠJane":6030,"ĠSociedad":6031,"ĠestarÃŃa":6032,"ĠAh":6033,"ĠcerrÃ³":6034,"Ġcontaba":6035,"ijo":6036,"adoras":6037,"gritÃ³":6038,"Ġcontrato":6039,"ady":6040,"ĠpÃ¡gina":6041,"ĠLugar":6042,"Ġutilizado":6043,"Ġincen":6044,"Ãį":6045,"Ġcrea":6046,"usta":6047,"Ġsuave":6048,"iosa":6049,"Ġmate":6050,"yendo":6051,"ĠOli":6052,"ĠJulio":6053,"tam":6054,"ĠUniversity":6055,"Ġservir":6056,"tella":6057,"aste":6058,"Ġperro":6059,"ĠBon":6060,"ĠGuar":6061,"Ġama":6062,"Ġvenir":6063,"dras":6064,"hen":6065,"queta":6066,"Ġdebut":6067,"Ġregular":6068,"Ġcrisis":6069,"Ġninguno":6070,"ĠcrÃŃtica":6071,"ĠMundo":6072,"lando":6073,"mal":6074,"Ġsobr":6075,"hat":6076,"Ð¸":6077,"Ġvues":6078,"sias":6079,"ĠpÃ¡":6080,"ubo":6081,"Ġcari":6082,"ĠoyÃ³":6083,"ĠaviÃ³n":6084,"Ġperci":6085,"ĠcÃŃr":6086,"igas":6087,"ĠRen":6088,"Ġacostumb":6089,"Ġtienda":6090,"05":6091,"Ġ***":6092,"Ġavis":6093,"Ġproductor":6094,"Ġsar":6095,"tn":6096,"eler":6097,"urt":6098,"ĠpolÃŃticas":6099,"Ġruso":6100,"Ġdura":6101,"ĠbritÃ¡nico":6102,"Ġdeclara":6103,"ĠWin":6104,"yer":6105,"Ġagrade":6106,"DÃ³nde":6107,"ĠintentÃ³":6108,"ĠFar":6109,"Ġpiezas":6110,"ĠHal":6111,"Ġcasti":6112,"ĠAward":6113,"ĠpropÃ³sito":6114,"2010":6115,"Ġpod":6116,"ĠHenry":6117,"ĠimpresiÃ³n":6118,"ĠPra":6119,"inados":6120,"guÃ©":6121,"Ġpensamientos":6122,"Ġexclus":6123,"ivi":6124,"ĠIndi":6125,"Ġproduce":6126,"Ġasiento":6127,"Ġargentino":6128,"ĠVin":6129,"Ġpris":6130,"Ġpoeta":6131,"--":6132,"ĠocurriÃ³":6133,"Ġabsoluto":6134,"Ġescalera":6135,"ĠalcanzÃ³":6136,"Ġentu":6137,"verdad":6138,"Ġenco":6139,"ĠâĢ¦":6140,"Ġunidades":6141,"ĠperiÃ³dico":6142,"Ġgusto":6143,"ĠEduardo":6144,"Ġparecido":6145,"Ġutiliza":6146,"Ġpintura":6147,"Ġprensa":6148,"Ġgana":6149,"ĠtradiciÃ³n":6150,"ĠBob":6151,"ĠcolecciÃ³n":6152,"ĠharÃŃa":6153,"ĠSco":6154,"Ġpreguntar":6155,"ĠGro":6156,"Ġcoronel":6157,"ĠPacÃŃfico":6158,"Ġtorm":6159,"ĠMark":6160,"2006":6161,"how":6162,"ĠreuniÃ³n":6163,"ĠJan":6164,"Ġ1969":6165,"orÃ¡n":6166,"Ġespada":6167,"Ġexplo":6168,"ĠÃĵ":6169,"Ġ1971":6170,"Ġambiente":6171,"Ġsecu":6172,"Ġadver":6173,"ĠiniciÃ³":6174,"derÃŃa":6175,"sk":6176,"ĠmÃ³vil":6177,"seguida":6178,"viv":6179,"ĠMusic":6180,"ĠFinal":6181,"rup":6182,"Ġace":6183,"ĠRadio":6184,"cura":6185,"Ġbelleza":6186,"95":6187,"85":6188,"ique":6189,"Ġconfianza":6190,"pens":6191,"ĠTorneo":6192,"Ġtradicional":6193,"raciones":6194,"Ġcomandante":6195,"Ġasal":6196,"Ġfij":6197,"ĠHon":6198,"pia":6199,"Ġprision":6200,"Ġexcel":6201,"Ġcuerpos":6202,"ĠHern":6203,"ĠWeb":6204,"ordenadas":6205,"tarios":6206,"ĠCarrera":6207,"idae":6208,"Ġmaravil":6209,"ĠPosteriormente":6210,"ĠÃºltimas":6211,"ĠEv":6212,"ĠCivil":6213,"amas":6214,"Ġmur":6215,"garon":6216,"Ġestrella":6217,"anca":6218,"tesis":6219,"Ġtecho":6220,"Ġtuviera":6221,"ak":6222,"Ġgeneralmente":6223,"itales":6224,"ĠDec":6225,"Ġolor":6226,"ĠBru":6227,"Ġfar":6228,"ĠTi":6229,"Ġestructu":6230,"Ġdevol":6231,"2011":6232,"Ġrecl":6233,"Ġafirma":6234,"\")":6235,"minos":6236,"Ġcristal":6237,"ah":6238,"ĠeconomÃŃa":6239,"ĠpresiÃ³n":6240,"ĠLan":6241,"ĠjugÃ³":6242,"Ġvon":6243,"ĠprotecciÃ³n":6244,"Ġsuav":6245,"Ġcoin":6246,"Ġbio":6247,"ĠJug":6248,"Ġinsist":6249,"Ġcorriendo":6250,"ĠEstas":6251,"ĠhistÃ³rico":6252,"Ã©ndole":6253,"radas":6254,"Ġvoces":6255,"ĠpodrÃŃan":6256,"ĠEcuador":6257,"ĠrespondiÃ³":6258,"2008":6259,"Cam":6260,"ĠPen":6261,"tive":6262,"ormes":6263,"ĠWashington":6264,"Ġexpan":6265,"Ġprogramas":6266,"Ġguitarra":6267,"onces":6268,"Ġlog":6269,"rich":6270,"Ġhumor":6271,"Ġmonum":6272,"ĠGeor":6273,"ĠDr":6274,"gimen":6275,"ĠespectÃ¡":6276,"Ġdejaba":6277,"ĠTorre":6278,"Ġplaneta":6279,"ĠDepartamento":6280,"imismo":6281,"ĠHun":6282,"Ġnoble":6283,"Ġnoticia":6284,"Ġdenom":6285,"Ġcomport":6286,"ĠGoles":6287,"Ġfrag":6288,"Ġacababa":6289,"ĠPlaza":6290,"ĠGuillermo":6291,"Ġnacido":6292,"Ġutilizar":6293,"adÃ¡ver":6294,"field":6295,"olver":6296,"ĠSeÃ±or":6297,"Ãºsica":6298,"asiÃ³n":6299,"ĠIl":6300,"IC":6301,"Ġcuch":6302,"Ġtranqu":6303,"esen":6304,"ĠCro":6305,"Ġgraba":6306,"aliza":6307,"Ġconcepto":6308,"Ġfueran":6309,"Ġinicio":6310,"questa":6311,"Ġnota":6312,"ĠRamÃ³n":6313,"mu":6314,"entro":6315,"Ġpropias":6316,"ĠelecciÃ³n":6317,"Ġhuman":6318,"Ġrecursos":6319,"Ġcabello":6320,"km":6321,"ĠMax":6322,"Ġindustria":6323,"ĠquÃŃm":6324,"Ġconstruido":6325,"ĠMol":6326,"Ġinvierno":6327,"ser":6328,"Ġespi":6329,"apones":6330,"ĠXXI":6331,"ĠMedalla":6332,"Ġconvertirse":6333,"isco":6334,"caban":6335,"Ġcualquiera":6336,"Ġresistencia":6337,"Ġsatisfac":6338,"ĠArt":6339,"ĠAsia":6340,"Ġdescubrir":6341,"AT":6342,"Ġcola":6343,"Ġvien":6344,"ĠcompaÃ±ero":6345,"Ġcampos":6346,"har":6347,"2009":6348,"zi":6349,"ĠmÃ¡ximo":6350,"Ġinde":6351,"99":6352,"ĠtÃ©rminos":6353,"Ðµ":6354,"orio":6355,"ĠanÃ¡lisis":6356,"Ġsexo":6357,"ĠcadÃ¡ver":6358,"ĠgustarÃŃa":6359,"Ġrecordar":6360,"cientos":6361,"ĠPers":6362,"Ġinver":6363,"ĠadministraciÃ³n":6364,"Ġzapa":6365,"Ġfrase":6366,"ĠGen":6367,"ji":6368,"Ġpus":6369,"Ġlanzamiento":6370,"ĠbaÃ±o":6371,"Ġestudiantes":6372,"gon":6373,"zaba":6374,"Ã³nico":6375,"ĠMunicipal":6376,"ĠMetro":6377,"Ġproducto":6378,"LO":6379,"Ġempezar":6380,"Ġlin":6381,"mula":6382,"Ġ42":6383,"ĠBus":6384,"jal":6385,"Fran":6386,"Ġenamor":6387,"Ġdetalles":6388,"eco":6389,"2005":6390,"garse":6391,"iguiÃ³":6392,"Ġpantalla":6393,"Ġfunciones":6394,"ĠGir":6395,"Ġperiodista":6396,"Ġ1967":6397,"AC":6398,"Ġerror":6399,"viÃ©tica":6400,"ĠapariciÃ³n":6401,"Ġcerebro":6402,"ĠvacÃŃo":6403,"Ġans":6404,"TV":6405,"ĠRub":6406,"ĠDor":6407,"Ġfuertes":6408,"irÃŃa":6409,"Ġcuarenta":6410,"Ġbeso":6411,"ĠSaint":6412,"Ġplane":6413,"ĠEspaÃ±ola":6414,"Ġcria":6415,"Ġuniversidad":6416,"hibi":6417,"Ser":6418,"Ġago":6419,"ĠCreo":6420,"pÃ¡":6421,"Ġretro":6422,"ĠQuer":6423,"Ġpasillo":6424,"Ġescol":6425,"Ġreempla":6426,"Ġquedar":6427,"ĠmarquÃ©s":6428,"amblea":6429,"Ġobispo":6430,"rismo":6431,"Ġgradu":6432,"Ġactitud":6433,"Ġlluvia":6434,"plom":6435,"Ġdespacho":6436,"dum":6437,"Ġtomado":6438,"ĠhabrÃ¡":6439,"ĠPark":6440,"ĠformÃ³":6441,"Ġfutbolista":6442,"Ġsusur":6443,"ĠAndrÃ©s":6444,"ĠVÃŃ":6445,"Ġhuel":6446,"tora":6447,"ĠSp":6448,"ede":6449,"Ġacord":6450,"Ġlater":6451,"Ġindependiente":6452,"eral":6453,"iertas":6454,"tillas":6455,"Ġaso":6456,"Ġperfectamente":6457,"ĠeconÃ³mica":6458,"ĠsÃ¡b":6459,"elle":6460,"fal":6461,"ĠsecciÃ³n":6462,"Ġnumerosas":6463,"cing":6464,"Ġoccidental":6465,"Ġimpe":6466,"ĠChe":6467,"Ġdieron":6468,"Ġenca":6469,"Ġmedalla":6470,"Ġseres":6471,"ive":6472,"Ġdespre":6473,"xon":6474,"Gu":6475,"ĠÃģngeles":6476,"Ġcat":6477,"ĠProvincia":6478,"Ġaceptar":6479,"ĠSiempre":6480,"Ġpoten":6481,"Ġganas":6482,"Ġmane":6483,"ÃŃcula":6484,"ĠLeague":6485,"ĠRiv":6486,"ĠtÃ©cnica":6487,"Ġrazones":6488,"Ġprofundi":6489,"Ġhacerse":6490,"pecies":6491,"Ġabund":6492,"Ġpone":6493,"carril":6494,"ĠCataluÃ±a":6495,"Ġnariz":6496,"ĠJosep":6497,"Ġrit":6498,"ĠextraÃ±a":6499,"acer":6500,"Ġleyes":6501,"Ġcla":6502,"Ġdecidido":6503,"ciar":6504,"ĠCant":6505,"bert":6506,"Ġaprob":6507,"ĠcreÃ³":6508,"Ġcoordenadas":6509,"Ġfortal":6510,"Ġasi":6511,"titu":6512,"chen":6513,"ombi":6514,"Ġcorto":6515,"Ġmetro":6516,"af":6517,"Ġjuicio":6518,"Ġdecirle":6519,"Ġmezcla":6520,"65":6521,"lag":6522,"mÃ¡tico":6523,"Ġcerem":6524,"Ġcarb":6525,"ÃŃg":6526,"Ãºcle":6527,"Ġreserv":6528,"Ġgriego":6529,"ĠSobre":6530,"Ġdispuesto":6531,"drÃ¡":6532,"TÃº":6533,"Ġprofundo":6534,"Ġconstruir":6535,"sula":6536,"Ġtantos":6537,"gaciones":6538,"Ġ1964":6539,"ski":6540,"Ġluna":6541,"Ġterminado":6542,"serv":6543,"guar":6544,"imas":6545,"AD":6546,"Ġces":6547,"Ġveg":6548,"Ġexam":6549,"quilib":6550,"Ġsuele":6551,"Ġperm":6552,"ĠolÃŃ":6553,"Ġbienes":6554,"ĠPaz":6555,"tinos":6556,"Ãºme":6557,"Ġprecio":6558,"uestos":6559,"ĠCine":6560,"Ġingresos":6561,"Ġliger":6562,"egro":6563,"Ġincluyen":6564,"Ġoficina":6565,"Ġdioses":6566,"Ġenemigos":6567,"Ġnegros":6568,"Ġplaya":6569,"ĠtrabajÃ³":6570,"Ġdesesper":6571,"ilio":6572,"ĠMÃ¡":6573,"Ġorgan":6574,"ĠPorque":6575,"Ġviolencia":6576,"diera":6577,"Ġfuentes":6578,"ĠEgip":6579,"ĠTÃº":6580,"ĠAragÃ³n":6581,"Ġtenga":6582,"Ã¡bita":6583,"ĠcondiciÃ³n":6584,"ĠGr":6585,"ensiones":6586,"Ġsean":6587,"Ġapun":6588,"Ġbloque":6589,"Ġpatio":6590,"Ġgustaba":6591,"Ġ1940":6592,"Ġcompleta":6593,"Ġbrillante":6594,"2000":6595,"Ġautores":6596,"ĠcontÃ³":6597,"2012":6598,"Ġnega":6599,"cÃº":6600,"-.":6601,"ĠRock":6602,"ef":6603,"Ġcopa":6604,"uncia":6605,"bos":6606,"ĠMario":6607,"Ġpensado":6608,"Ã¡mica":6609,"ierre":6610,"sted":6611,"americana":6612,"ĠCristo":6613,"yan":6614,"Ġteniendo":6615,"ĠCel":6616,"gadas":6617,"88":6618,"ĠcaÃŃda":6619,"Ġconst":6620,"ĠartÃŃculos":6621,"OM":6622,"ĠlÃ³g":6623,"burg":6624,"Gracias":6625,"murm":6626,"Ġalemanes":6627,"Ġtransporte":6628,"Ġconquist":6629,"rista":6630,"').":6631,"Ġ65":6632,"ĠSport":6633,"Ġjapones":6634,"ĠreacciÃ³n":6635,"ĠPalacio":6636,"iada":6637,"Pe":6638,"ĠAma":6639,"ĠsÃŃmb":6640,"66":6641,"ĠDin":6642,"Ġjuz":6643,"Ġpaisa":6644,"ÃŃti":6645,"09":6646,"Ã³st":6647,"ĠalegrÃŃa":6648,"Ġdetec":6649,"Ġampli":6650,"icios":6651,"ĠpermitiÃ³":6652,"01":6653,"Ġ44":6654,"ĠJavier":6655,"quete":6656,"Ġacabar":6657,"pus":6658,"Ġhistori":6659,"ĠmontaÃ±as":6660,"Ġdismin":6661,"ĠEstoy":6662,"ĠWest":6663,"2004":6664,"ĠZara":6665,"Ġprac":6666,"Ġbuenas":6667,"ersey":6668,"Ġhistorias":6669,"Ġech":6670,"ĠDirector":6671,"Ġmismas":6672,"ĠCuba":6673,"pada":6674,"Ġcamar":6675,"Ġoperaciones":6676,"Ġaccidente":6677,"dita":6678,"Ġquince":6679,"ienda":6680,"usos":6681,"Ġguardia":6682,"ĠMedia":6683,"Ġfeder":6684,"Ġreconocer":6685,"ĠIsrael":6686,"ĠrepresentaciÃ³n":6687,"Ġabri":6688,"ĠÃ¡reas":6689,"Ġvive":6690,"Ġgenerales":6691,"Ġ1966":6692,"Ġsalido":6693,"ĠAv":6694,"istoria":6695,"ĠFederal":6696,"Ġhem":6697,"Ġautoridades":6698,"Ġconseguido":6699,"ĠApar":6700,"Mo":6701,"nie":6702,"Ġechar":6703,"DespuÃ©s":6704,"Ġtratando":6705,"ĠpÃ©rdida":6706,"Ġais":6707,"Ġtratado":6708,"die":6709,"Ġvotos":6710,"cador":6711,"ary":6712,"Ġintentando":6713,"ganta":6714,"Ġdivis":6715,"ison":6716,"Ġunif":6717,"Ġlenguaje":6718,"ĠDoc":6719,"Ġelector":6720,"ĠdÃ©bil":6721,"Ġimpresion":6722,"cula":6723,"ĠEle":6724,"americano":6725,"Ġcorona":6726,"Ġec":6727,"Ġplanes":6728,"Ġsonre":6729,"ĠcasÃ³":6730,"Ġreflex":6731,"Ġhabitual":6732,"Ġpene":6733,"Ġ\"Â¡":6734,"ĠKing":6735,"Ġllamaba":6736,"uega":6737,"dul":6738,"mites":6739,"ĠsÃŃn":6740,"ĠtÃºn":6741,"Ġresca":6742,"08":6743,"ĠVicente":6744,"Ġcampeonato":6745,"Ġhierro":6746,"Son":6747,"Ġcrecimiento":6748,"orro":6749,"ĠbajÃ³":6750,"ornada":6751,"eles":6752,"Ġclima":6753,"luy":6754,"ibilidad":6755,"taÃ±a":6756,"ters":6757,"Ġdim":6758,"Ġfiguras":6759,"ĠÃºnicamente":6760,"Ġabandonar":6761,"Ġsobres":6762,"Ġdeseaba":6763,"ĠTex":6764,"ĠacabÃ³":6765,"ieres":6766,"ĠXVII":6767,"Ġdedo":6768,"tios":6769,"Ġ1965":6770,"Ġdescu":6771,"Ġempe":6772,"Ã¡stico":6773,"Ġconsum":6774,"jÃ³n":6775,"ture":6776,"Ã³mez":6777,"Ġregu":6778,"Ġsacar":6779,"ĠHos":6780,"ĠoperaciÃ³n":6781,"06":6782,"Ġquiso":6783,"ĠRicardo":6784,"tiende":6785,"ĠpermaneciÃ³":6786,"Ġcomprar":6787,"ĠGreg":6788,"Ġpic":6789,"tÃŃ":6790,"Ġsentimientos":6791,"76":6792,"ĠMir":6793,"uelto":6794,"Ġliga":6795,"ware":6796,"Ġproyectos":6797,"Ġpresiden":6798,"Ġnacimiento":6799,"ĠEsco":6800,"ĠsueÃ±os":6801,"cÃŃan":6802,"Ġromp":6803,"Ġtrabajando":6804,"Ġpronunci":6805,"Ġdescans":6806,"Ãºsque":6807,"enco":6808,"kov":6809,"ĠEgipto":6810,"ĠfÃŃsica":6811,"Ġdirigido":6812,"Ġsubir":6813,"2013":6814,"98":6815,"Ġabogado":6816,"bus":6817,"Hay":6818,"Ġduro":6819,"acas":6820,"ĠCultura":6821,"cieron":6822,"ĠhÃºme":6823,"ditos":6824,"Ġindica":6825,"ĠBlo":6826,"Da":6827,"2003":6828,"ii":6829,"hol":6830,"ozco":6831,"Don":6832,"ibe":6833,"Ġriesgo":6834,"Ġhubieran":6835,"tadores":6836,"Ġcumplir":6837,"Bien":6838,"Ġcomenzaron":6839,"ĠBay":6840,"ĠParque":6841,"rosa":6842,"US":6843,"Ġproducir":6844,"ĠDen":6845,"Ġasesinato":6846,"ĠcambiÃ³":6847,"polit":6848,"Ġdarse":6849,"Ġbuenos":6850,"Ġconvierte":6851,"Ġpec":6852,"97":6853,"ray":6854,"Ã©li":6855,"Ġsober":6856,"ua":6857,"Ġinteg":6858,"ĠaÃ©":6859,"Ġ1930":6860,"ÃŃnea":6861,"07":6862,"Ju":6863,"ship":6864,"rador":6865,"Ġcomienzo":6866,"Ġabre":6867,"lectu":6868,"Ġincapa":6869,"geno":6870,"Ġabuelo":6871,"Ġmotivos":6872,"lon":6873,"Ġdeman":6874,"Ġmister":6875,"Ġescrita":6876,"ponÃ©s":6877,"torias":6878,"ĠSerie":6879,"Ġlun":6880,"cÃ©":6881,"sas":6882,"Ġvecinos":6883,"istema":6884,"Ġcomercio":6885,"vÃ¡n":6886,"Ġ\"Â¿":6887,"ĠPin":6888,"Ġsemejante":6889,"ĠAngel":6890,"quÃŃn":6891,"ĠToda":6892,"Ġreconocimiento":6893,"âĢĵ.":6894,"itando":6895,"Ġagente":6896,"ĠRosa":6897,"Ġcorta":6898,"teles":6899,"Ġgarganta":6900,"Ġ56":6901,"Ġderrota":6902,"ĠEducaciÃ³n":6903,"Ġore":6904,"Ġrealiza":6905,"rad":6906,"Ra":6907,"Ġtraje":6908,"ĠRoberto":6909,"Ġ41":6910,"americanos":6911,"Ġcena":6912,"Ġ1962":6913,"dije":6914,"Cre":6915,"Ġtransform":6916,"Äĩ":6917,"mala":6918,"Ġletras":6919,"Ġtemperatura":6920,"ĠmamÃ¡":6921,"Ġconsciente":6922,"ence":6923,"Ġcelebr":6924,"Ġcuadro":6925,"Ġescenario":6926,"ov":6927,"EstÃ¡s":6928,"Ġvenci":6929,"ĠGas":6930,"ht":6931,"Ġbanco":6932,"Ġbarro":6933,"Ġhere":6934,"Ġtitular":6935,"enaje":6936,"Cas":6937,"Ġloco":6938,"Ġpiano":6939,"Ġmusicales":6940,"Ġintentar":6941,"ĠmÃ¡xima":6942,"Ġfamoso":6943,"Ġpolvo":6944,"Ġexplos":6945,"Ġsalvar":6946,"Ġimpuls":6947,"96":6948,"ĠServi":6949,"ledo":6950,"Ġamplia":6951,"ĠhablÃ³":6952,"Ġrefiere":6953,"ĠChi":6954,"Ġencer":6955,"ĠIncluso":6956,"ilos":6957,"ĠLove":6958,"ÃŃsima":6959,"Ġmel":6960,"Bar":6961,"HabÃŃa":6962,"ĠmuÃ±":6963,"ĠgeneraciÃ³n":6964,"Ġautoridad":6965,"fos":6966,"ĠnÃºmeros":6967,"ĠFlora":6968,"ĠtÃŃtulos":6969,"inando":6970,"Ġsupo":6971,"Ġregiones":6972,"ribunal":6973,"Ġgrito":6974,"ĠTengo":6975,"Ġconflicto":6976,"Ġmateria":6977,"ĠDol":6978,"quilla":6979,"Ġtarea":6980,"idor":6981,"dill":6982,"Ġapor":6983,"ĠGÃ³mez":6984,"Ġreloj":6985,"iares":6986,"Ġrodillas":6987,"ĠresultÃ³":6988,"jan":6989,"Ġpoca":6990,"ridge":6991,"diz":6992,"Ġpropon":6993,"SeÃ±":6994,"Ġindependencia":6995,"ĠLee":6996,"ĠGrecia":6997,"Ġ1945":6998,"Ġcontinuar":6999,"Ġruta":7000,"Ġ01":7001,"goza":7002,"ĠindÃŃ":7003,"amilia":7004,"ĠAten":7005,"Ġrefor":7006,"ID":7007,"Ġcaballero":7008,"Ġpatr":7009,"cran":7010,"tumbre":7011,"ĠIb":7012,"Ġpsic":7013,"ĠCatÃ³":7014,"Ġ1963":7015,"iena":7016,"ĠordenÃ³":7017,"ĠnÃºcle":7018,"ĠjudÃŃos":7019,"Ġdesh":7020,"ĠPel":7021,"2015":7022,"Ġdecre":7023,"lesc":7024,"tologÃŃa":7025,"Ġhaberse":7026,"ders":7027,"ĠDomingo":7028,"andra":7029,"Ġorilla":7030,"zando":7031,"Ġ43":7032,"omÃ©":7033,"Ġnegocios":7034,"iÃ¡n":7035,"Ġmaravillos":7036,"Ġvilla":7037,"ĠacadÃ©m":7038,"Ġcircunstancias":7039,"âĢĶ:":7040,"Ġdesarrollar":7041,"Ġluces":7042,"Ġhablado":7043,"Ġjusticia":7044,"ples":7045,"ĠpÃ¡ginas":7046,"87":7047,"ĠScien":7048,"Ġ\",":7049,"umo":7050,"icultura":7051,"Ġcambiado":7052,"Ã¡logo":7053,"enzo":7054,"inales":7055,"Na":7056,"ĠfÃ¡br":7057,"ĠAut":7058,"Ġconfor":7059,"ĠfrÃŃa":7060,"ĠChica":7061,"Ġprisa":7062,"Ġsomos":7063,"king":7064,"ĠRiver":7065,"ĠrÃ©gimen":7066,"Ġdesaparecido":7067,"2014":7068,"ĠPolonia":7069,"Ġhisp":7070,"grafÃŃas":7071,"Ġalco":7072,"ĠComisiÃ³n":7073,"pora":7074,"Este":7075,"Ġreno":7076,"Ġfranceses":7077,"Ġquedaron":7078,"Ġbolsillo":7079,"lados":7080,"Ġarena":7081,"Ca":7082,"ĠclasificaciÃ³n":7083,"tinu":7084,"Ġcostumbre":7085,"Ġresultaba":7086,"Ð½":7087,"Ã¢":7088,"Ġligeramente":7089,"Res":7090,"86":7091,"Ġmiles":7092,"Ġproducido":7093,"hy":7094,"ally":7095,"hÃŃa":7096,"ĠSig":7097,"entan":7098,"Ġcomuna":7099,"onios":7100,"Ġamo":7101,"Ãºsqueda":7102,"ĠDem":7103,"Ġinspec":7104,"Ġlej":7105,"Ġastero":7106,"Ġentrenador":7107,"iemb":7108,"ĠSac":7109,"ĠMont":7110,"Ġalf":7111,"Ġsale":7112,"abo":7113,"ĠEsa":7114,"ĠcÃ¡r":7115,"Ġmuseo":7116,"Ġtransmi":7117,"ĠAll":7118,"Ġresponsable":7119,"ĠGrande":7120,"Ġcuesti":7121,"tiÃ©ndose":7122,"Ġbro":7123,"ĠMic":7124,"Ġinfin":7125,"Ġbras":7126,"2001":7127,"Ã©ano":7128,"Ġnaturales":7129,"ĠDebido":7130,"ĠDal":7131,"ĠHora":7132,"Ġ57":7133,"ĠmÃ¡quina":7134,"landa":7135,"idores":7136,"Ġexci":7137,"92":7138,"Ġhielo":7139,"undo":7140,"oncesto":7141,"ĠEdad":7142,"ĠDisco":7143,"Ġasuntos":7144,"ĠAndre":7145,"Clar":7146,"Ġpintor":7147,"Ġabuela":7148,"uelos":7149,"Ġchicos":7150,"Ġarco":7151,"oroeste":7152,"ĠPalmarÃ©s":7153,"Ġarru":7154,"phy":7155,"Am":7156,"Ġpobla":7157,"RE":7158,"ĠcrÃ©":7159,"camente":7160,"Ġestablecer":7161,"Ġevento":7162,"ds":7163,"Ġtantas":7164,"Ġancho":7165,"ÑĢ":7166,"enny":7167,"Ven":7168,"ĠfenÃ³m":7169,"ĠFederaciÃ³n":7170,"rest":7171,"ĠMÃºsica":7172,"ĠInterna":7173,"Ġproteger":7174,"ĠSÃ©":7175,"Ġpapeles":7176,"Ġextin":7177,"LA":7178,"ĠAg":7179,"igar":7180,"viese":7181,"ĠreligiÃ³n":7182,"Mu":7183,"ĠpublicaciÃ³n":7184,"ult":7185,"ĠextensiÃ³n":7186,"itaciones":7187,"ĠFab":7188,"Ġalcalde":7189,"ĠFundaciÃ³n":7190,"55":7191,"Ġvag":7192,"Ġreda":7193,"Ġnieve":7194,"ĠcolaboraciÃ³n":7195,"Ġconfun":7196,"Ġmateriales":7197,"Ġfemenino":7198,"ĠvivÃŃa":7199,"ĠCanal":7200,"ĠGuate":7201,"Ġhoriz":7202,"Ġtej":7203,"Ġllan":7204,"ĠdistribuciÃ³n":7205,"oya":7206,"ĠmÃ¡r":7207,"posi":7208,"murmurÃ³":7209,"ĠautÃ©n":7210,"Ã¡bitat":7211,"ĠObras":7212,"Ġponerse":7213,"ĠSun":7214,"ãĥ":7215,"Ã¡ce":7216,"Ġenseguida":7217,"vada":7218,"Ġculp":7219,"Ġpiedras":7220,"ĠDipu":7221,"enza":7222,"encial":7223,"ĠCorea":7224,"2002":7225,"ĠDerecho":7226,"Ġchar":7227,"Ġventanas":7228,"ĠdebÃŃan":7229,"ĠUN":7230,"Ġejerci":7231,"Ãĵ":7232,"Ġarrastr":7233,"Ġidioma":7234,"Mientras":7235,"Ġversiones":7236,"Ġtribu":7237,"undamente":7238,"tidades":7239,"Ġsacri":7240,"amarca":7241,"Ġentusias":7242,"ĠRica":7243,"ĠâĢĺ":7244,"ĠRay":7245,"Ġdro":7246,"Ġretor":7247,"Ġmultitud":7248,"ĠactuaciÃ³n":7249,"ĠCha":7250,"menes":7251,"Ġminuto":7252,"ĠJoa":7253,"Ġadministra":7254,"ĠvolvÃŃa":7255,"89":7256,"Ġimpul":7257,"ika":7258,"ĠElec":7259,"yen":7260,"ilas":7261,"Ġprogres":7262,"Ġdirecto":7263,"Ġestados":7264,"dell":7265,"Ġprobable":7266,"Ġinoc":7267,"Todo":7268,"Ġ1936":7269,"xi":7270,"ms":7271,"ĠAdri":7272,"Ġpieza":7273,"Ġbi":7274,"Ġhaga":7275,"Jos":7276,"Ġmenores":7277,"mÃ¡ticas":7278,"ĠLuna":7279,"ĠSuecia":7280,"Ġtap":7281,"Ã³ma":7282,"ĠmÃºlti":7283,"Estoy":7284,"deos":7285,"anti":7286,"trol":7287,"ĠAra":7288,"ĠuniÃ³":7289,"ĠCir":7290,"posiciones":7291,"Ġemer":7292,"ĠhÃ©ro":7293,"ĠprisiÃ³n":7294,"Ġastron":7295,"sto":7296,"hel":7297,"Ġintelectu":7298,"Ġofrece":7299,"uti":7300,"baciÃ³n":7301,"ĠProfes":7302,"Ġasent":7303,"Ġinspir":7304,"Ġadolesc":7305,"Ġestancia":7306,"crito":7307,"Ġcolegio":7308,"ĠColegio":7309,"Ġllegando":7310,"Ġhallaba":7311,"Ġsacerdote":7312,"Ġpoblacional":7313,"Ġpractic":7314,"Ġrepu":7315,"ĠBueno":7316,"Ġgem":7317,"ĠDÃŃaz":7318,"venir":7319,"ĠpoesÃŃa":7320,"ĠCarmen":7321,"ĠNicol":7322,"ĠPS":7323,"Ġtrop":7324,"plan":7325,"olÃ³gicos":7326,"ĠtÃŃa":7327,"Ġnecesita":7328,"ĠcontemporÃ¡n":7329,"ritos":7330,"Ġescala":7331,"ĠQuizÃ¡":7332,"Ba":7333,"Ġcerv":7334,"ota":7335,"Ġ1958":7336,"Ġcomerci":7337,"ĠClubes":7338,"Ġtratamiento":7339,"ĠPi":7340,"Ġrepi":7341,"Ġguion":7342,"Ġmonstru":7343,"Ġllorar":7344,"Ġmanda":7345,"Ġgritos":7346,"Ġrespec":7347,"gulo":7348,"Ġfui":7349,")<|":7350,"Ġembar":7351,"ĠvehÃŃculo":7352,"ĠGuatemala":7353,"ema":7354,"Ġnegocio":7355,"uraciÃ³n":7356,"RO":7357,"iÃ©ndo":7358,"ĠVisitante":7359,"ĠcÃ¡n":7360,"yecto":7361,"67":7362,"Ġlados":7363,"Ġsexual":7364,"Ġ1961":7365,"Ġdecide":7366,"Ġtim":7367,"Ġenviado":7368,"ĠPaÃŃses":7369,"Esta":7370,"iber":7371,"ĠmÃ©todo":7372,"ĠPuede":7373,"itorio":7374,"ĠSebastiÃ¡n":7375,"ĠJon":7376,"Ġletra":7377,"ĠbÃºsqueda":7378,"Ġdocumentos":7379,"mada":7380,"ĠGranada":7381,"Ġby":7382,"Ġrecibe":7383,"Ġregal":7384,"Ġatrac":7385,"Ġecu":7386,"ĠAf":7387,"Ġbajar":7388,"Ġverlo":7389,"Ġtrono":7390,"Ġplano":7391,"Ġsucedido":7392,"Ġtemporadas":7393,"ctur":7394,"Ġ84":7395,"ĠFoot":7396,"ĠLeo":7397,"Ġcamisa":7398,"irÃ¡":7399,"ulgar":7400,"Ġactos":7401,"asterio":7402,"ĠtecnologÃŃa":7403,"ĠZaragoza":7404,"ĠPoco":7405,"Ġcoinci":7406,"ĠPie":7407,"ĠÎ":7408,"Ġequilib":7409,"rones":7410,"Ġritmo":7411,"ĠHoy":7412,"ĠAlfre":7413,"Ġ300":7414,"ĠUl":7415,"puestas":7416,"Ġempren":7417,"ĠUnited":7418,"Ã³cra":7419,"Ġaltas":7420,"ĠSierra":7421,"acÃŃa":7422,"uc":7423,"ĠdebiÃ³":7424,"';":7425,"Ġvolumen":7426,"Ġdistribu":7427,"Ġaliento":7428,"ĠÂ°":7429,"Ġhambre":7430,"Ġarquitectura":7431,"Ġrecuerdos":7432,"uss":7433,"Ġllegaba":7434,"onÃŃa":7435,"Ġestudiar":7436,"CapÃŃtulo":7437,"Deb":7438,"TE":7439,"Ġinternacionales":7440,"ĠdeclarÃ³":7441,"Ġconform":7442,"Ġ1920":7443,"ĠvenÃŃa":7444,"ÃŃnsula":7445,"Vamos":7446,"tedes":7447,"Ġvisitar":7448,"peÃ³n":7449,"Ã³rmula":7450,"Ġespejo":7451,"ĠMaria":7452,"loria":7453,"ĠLy":7454,"ĠJersey":7455,"ĠIma":7456,"Ġmono":7457,"Ġfiel":7458,"Ã³noma":7459,"guna":7460,"ĠTec":7461,"Ġamistad":7462,"Ġcuyos":7463,"Ġreales":7464,"ĠAnte":7465,"Ġalemana":7466,"Ġconfes":7467,"ĠLis":7468,"ĠMoscÃº":7469,"Ġprofunda":7470,"ĠUU":7471,"ĠBolivia":7472,"Ġpeda":7473,"Ġsalto":7474,"Ġquedarse":7475,"ĠAlgunas":7476,"puestos":7477,"ĠSy":7478,"Ġclave":7479,"Ġconocidos":7480,"Ġroja":7481,"ĠVa":7482,"Ġidentidad":7483,"Ġustedes":7484,"Ġteniente":7485,"ĠCastro":7486,"ĠZa":7487,"ĠinclinÃ³":7488,"Ġquisiera":7489,"iego":7490,"cracia":7491,"ĠprÃ¡cticamente":7492,"ĠficciÃ³n":7493,"ĠIrlanda":7494,"ĠjaponÃ©s":7495,"ĠsoluciÃ³n":7496,"ĠtÃ©":7497,"istÃ¡n":7498,"cÃŃ":7499,"rand":7500,"lidos":7501,"gano":7502,"ĠNBA":7503,"ĠAquÃŃ":7504,"fera":7505,"ĠCuer":7506,"landia":7507,"pg":7508,"Ġseguida":7509,"ĠSing":7510,"ĠTres":7511,"ĠobservÃ³":7512,"ĠrevoluciÃ³n":7513,"quila":7514,"Ġconsol":7515,"Ġcampes":7516,"stra":7517,"ĠFon":7518,"Ġoriental":7519,"ĠPues":7520,"Ġdefender":7521,"his":7522,"Ġadmir":7523,"ĠsucediÃ³":7524,"ĠBajo":7525,"ĠTrayectoria":7526,"03":7527,"Ġesposo":7528,"ĠLouis":7529,"bras":7530,"ĠRosario":7531,"ĠXIII":7532,"raron":7533,"Ġpapa":7534,"endas":7535,"Ġdominio":7536,"68":7537,"Ġniveles":7538,"Ġhermosa":7539,"Ġpartida":7540,"Ġhin":7541,"Ġresponder":7542,"Ġdesapareci":7543,"Cor":7544,"ĠFerro":7545,"ĠlÃŃmite":7546,"Ġpareci":7547,"Ġtea":7548,"ĠSuiza":7549,"ĠJunior":7550,"Ġ),":7551,"93":7552,"ĠmostrÃ³":7553,"hr":7554,"dam":7555,"ĠEE":7556,"ĠBrown":7557,"Ġsalv":7558,"Desde":7559,"ĠStre":7560,"Ġredon":7561,"Ġmoral":7562,"Ġfort":7563,"Ġhiciera":7564,"Ġinteligencia":7565,"ĠScho":7566,"uz":7567,"Ġjpg":7568,"Ġinvestig":7569,"ĠCur":7570,"ĠConst":7571,"ĠBajos":7572,"ĠSir":7573,"ĠEscu":7574,"Ġpertenece":7575,"ĠcÃ³m":7576,"Ġvideoj":7577,"nia":7578,"Ġrespeto":7579,"Sa":7580,"77":7581,"board":7582,"Ġvueltas":7583,"ĠoposiciÃ³n":7584,"Ġusa":7585,"ĠEje":7586,"ĠVII":7587,"ĠIN":7588,"Ġmag":7589,"Ġsolar":7590,"Ġsiente":7591,"Ġ05":7592,"Ġbrus":7593,"citos":7594,"ĠnegÃ³":7595,"ĠAdam":7596,"Ġoscura":7597,"ĠAlianza":7598,"Ã¡rez":7599,"uyÃ³":7600,"Ġchicas":7601,"Ġapos":7602,"ites":7603,"Ġinforme":7604,"Ġdieci":7605,"ets":7606,"Ġforman":7607,"Ġdescritas":7608,"Ġpiloto":7609,"Ġesquina":7610,"ĠSeÃ±ora":7611,"Ġbosques":7612,"Ġ58":7613,"grafo":7614,"ĠDistrito":7615,"Ġempieza":7616,"versiÃ³n":7617,"laba":7618,"chu":7619,"Ġcuriosidad":7620,"Ġsiguiendo":7621,"pectos":7622,"ĠNuestra":7623,"pongo":7624,"Ġaltos":7625,"ĠOf":7626,"Ġconsejo":7627,"ĠCastillo":7628,"rilla":7629,"Ġ1939":7630,"Ġlograr":7631,"Ġsecretario":7632,"Ġcaza":7633,"yeron":7634,"Ġmalo":7635,"ology":7636,"Ġterritorios":7637,"Ġimagin":7638,"ĠEditorial":7639,"04":7640,"ĠAeropuerto":7641,"Ġdelan":7642,"Ġconsiste":7643,"ĠapartÃ³":7644,"Ġcintur":7645,"ĠRevoluciÃ³n":7646,"94":7647,"Ġbiblioteca":7648,"RI":7649,"Ġprofundamente":7650,"Ġcorresponden":7651,"yr":7652,"itch":7653,"Ġprincesa":7654,"Ġciento":7655,"ĠdescubriÃ³":7656,"Ġencontraban":7657,"kes":7658,"Ġ52":7659,"Ġvalores":7660,"Ġinterro":7661,"Ġaparecer":7662,"medio":7663,"Ġangust":7664,"ĠJohan":7665,"vieran":7666,"udio":7667,"ĠcÃ¡rcel":7668,"Bo":7669,"tidas":7670,"ĠCra":7671,"1999":7672,"Ġpese":7673,"Ġrevis":7674,"Ġvariedad":7675,"pidez":7676,"ĠChicago":7677,"ĠLorenzo":7678,"Ġsobresal":7679,"mita":7680,"rientes":7681,"Ġ1959":7682,"Ġbailar":7683,"ĠShe":7684,"paciones":7685,"ĠZe":7686,"mis":7687,"Ġmural":7688,"ĠInvesti":7689,"ĠConstituciÃ³n":7690,"Ġequiv":7691,"gor":7692,"Ġausencia":7693,"ĠDesarro":7694,"ĠcatÃ³lica":7695,"replicÃ³":7696,"Ġlargas":7697,"Ġ1944":7698,"Ġcompositor":7699,"ĠReyes":7700,"iy":7701,"cesis":7702,"amentos":7703,"Ġvaya":7704,"Ġhumo":7705,"mpa":7706,"urado":7707,"ĠRon":7708,"ear":7709,"Ġrango":7710,"Ġmodelos":7711,"Ġtiro":7712,"ĠespectÃ¡culo":7713,"ualidad":7714,"hua":7715,"ĠPolÃŃ":7716,"ĠAdminist":7717,"Ġent":7718,"Ġmeter":7719,"Ġciertas":7720,"Ġtrabajadores":7721,"ĠVida":7722,"ierÃŃa":7723,"ĠSantos":7724,"Ġ1956":7725,"Ġreca":7726,"ĠRacing":7727,"ĠSala":7728,"Ġexplor":7729,"ĠDom":7730,"ĠsoltÃ³":7731,"genas":7732,"quinas":7733,"ĠfilosofÃŃa":7734,"ĠPP":7735,"Ġtranspor":7736,"emor":7737,"91":7738,"ĠOrganiz":7739,"Ġembara":7740,"icion":7741,"Ġfelicidad":7742,"ĠcapÃŃtulo":7743,"mÃ³":7744,"Ġmodific":7745,"Historia":7746,"gÃ©n":7747,"Ġopon":7748,"Creo":7749,"ĠpÃ¡l":7750,"Ġsurg":7751,"Ġrecorrido":7752,"Ġpude":7753,"Ġdebo":7754,"ĠrÃŃos":7755,"iamente":7756,"Ġdob":7757,"Ġger":7758,"Ġcomplejo":7759,"ĠBanco":7760,"AP":7761,"adÃŃa":7762,"onatos":7763,"Ġhaci":7764,"ĠlÃŃmites":7765,"rioso":7766,"ÃŃes":7767,"Ġabsor":7768,"Å¡":7769,"ĠSoviÃ©tica":7770,"Ãºr":7771,"terna":7772,"Ġreconstru":7773,"ae":7774,"Ġaves":7775,"Or":7776,"ensis":7777,"Ġsoldado":7778,"Ġfortuna":7779,"ĠestÃ³ma":7780,"Sus":7781,"FC":7782,"ĠNicolÃ¡s":7783,"Ġhoja":7784,"Ġsignificado":7785,"lina":7786,"ĠretirÃ³":7787,"Ġbaile":7788,"Ġofrecer":7789,"Ġvest":7790,"Ġed":7791,"Ġamenaza":7792,"Ġmarco":7793,"Ġportugu":7794,"enes":7795,"Ġtemor":7796,"jara":7797,"Ġinstala":7798,"Ġpresentes":7799,"Ġcaliente":7800,"Ġverla":7801,"Ġreprodu":7802,"bro":7803,"Ġcercan":7804,"Ġcerrar":7805,"Ġespeciales":7806,"iner":7807,"Ġaden":7808,"ĠtratÃ³":7809,"ĠpasiÃ³n":7810,"unciÃ³n":7811,"erg":7812,"Ġabsoluta":7813,"Ġhorror":7814,"ĠGor":7815,"ĠpensÃ©":7816,"Ġexpon":7817,"Ġestadio":7818,"idal":7819,"ĠeconÃ³mico":7820,"ĠCampeÃ³n":7821,"ĠcÃ©":7822,"ĠQuiero":7823,"ĠGuer":7824,"clope":7825,"ĠNada":7826,"Ġalber":7827,"ĠfÃŃsico":7828,"Ġaparecen":7829,"Ġconex":7830,"ĠCuar":7831,"ĠfundaciÃ³n":7832,"ĠFacultad":7833,"Ġnotas":7834,"Ġhalla":7835,"ĠsirviÃ³":7836,"Ġhice":7837,"Tra":7838,"Ġeventos":7839,"Ã©rico":7840,"ĠsalÃŃa":7841,"Col":7842,"Ġtron":7843,"Ġinfancia":7844,"Ġaumento":7845,"Ġesclav":7846,"Ġcita":7847,"ĠAgust":7848,"Ġwith":7849,"ĠFranco":7850,"Ġalcance":7851,"Ġolvidado":7852,"Ġmodos":7853,"Ġcapilla":7854,"Ġambien":7855,"Ġinicial":7856,"Ġindividual":7857,"ĠserÃŃan":7858,"Ġobservar":7859,"ĠEuropeo":7860,"ĠAlcal":7861,"ulos":7862,"Ġdele":7863,"ificado":7864,"Ġprov":7865,"Ġvel":7866,"Ġterra":7867,"laron":7868,"ÃŃble":7869,"ĠForma":7870,"Ġmedidas":7871,"Ġinstituciones":7872,"ĠpÃ¡jar":7873,"Ġclara":7874,"ĠInstitu":7875,"Ġ51":7876,"chel":7877,"Ġasom":7878,"abeth":7879,"Tu":7880,"Ġfundada":7881,"Ġdicen":7882,"Ġmecan":7883,"Ġcif":7884,"hib":7885,"Ġsirve":7886,"ĠEstad":7887,"Ġescas":7888,"ĠexposiciÃ³n":7889,"ĠcariÃ±o":7890,"ette":7891,"Ġascenso":7892,"Ġ1957":7893,"Ġcomportamiento":7894,"tto":7895,"dirse":7896,"quin":7897,"amar":7898,"blo":7899,"Ġdiri":7900,"ĠestableciÃ³":7901,"ĠJoseph":7902,"SS":7903,"ientas":7904,"ĠÃļ":7905,"the":7906,"ĠRena":7907,"Ġacaba":7908,"ĠCaracter":7909,"Ġrecuperar":7910,"Ġprovincias":7911,"Ġ1955":7912,"ĠTru":7913,"Ġ1948":7914,"ĠAyuntamiento":7915,"Ġ400":7916,"ĠNavar":7917,"ualmente":7918,"xo":7919,"Ġpiensa":7920,"ionado":7921,"gusto":7922,"ĠestÃ³mago":7923,"Claro":7924,"ementerio":7925,"Ġmunicipios":7926,"gol":7927,"Ġobligado":7928,"Ġmexicano":7929,"Ġescudo":7930,"Ġbarcos":7931,"ĠLen":7932,"Ġpuestos":7933,"2016":7934,"Ġpreciso":7935,"ĠAri":7936,"ertos":7937,"antar":7938,"Ġdrama":7939,"ĠDescripciÃ³n":7940,"Ġrespir":7941,"Ġcomprom":7942,"Ġsat":7943,"ĠJunta":7944,"oni":7945,"Ġhacerle":7946,"Ġtos":7947,"Ġviva":7948,"ĠComitÃ©":7949,"viamente":7950,"Ġmone":7951,"Ġescaleras":7952,"Ġaer":7953,"iti":7954,"tent":7955,"64":7956,"Ã©lgica":7957,"Ġpura":7958,"Ġusado":7959,"pita":7960,"Ġposteriores":7961,"Ġrisa":7962,"istola":7963,"ĠinterpretaciÃ³n":7964,"84":7965,"ĠJusticia":7966,"Ġquerer":7967,"Ġbordo":7968,"Ġtaller":7969,"Ġrelev":7970,"Ġoficialmente":7971,"Ġimpro":7972,"jando":7973,"ĠrÃ¡pida":7974,"Ġcontrolar":7975,"02":7976,"tificaciÃ³n":7977,"Ġarquite":7978,"Ġ1941":7979,"ĠTop":7980,"Ġcatedral":7981,"obo":7982,"Ġencontraron":7983,"Ġjuventud":7984,"Ġcuidad":7985,"vimiento":7986,"tti":7987,"uestas":7988,"urg":7989,"Ġdiscul":7990,"Ġmasculino":7991,"Ġasign":7992,"ĠFootball":7993,"Ġmenti":7994,"mond":7995,"ĠPap":7996,"ĠmÃŃnimo":7997,"dela":7998,"inte":7999,"erra":8000,"ĠhistÃ³rica":8001,"pecial":8002,"ĠMed":8003,"Ġcomplic":8004,"Ġbasada":8005,"ficial":8006,"zgo":8007,"Ġagradable":8008,"misiÃ³n":8009,"ett":8010,"rin":8011,"EC":8012,"todos":8013,"ÃŃfica":8014,"Ġdistra":8015,"ÃŃsticos":8016,"ledad":8017,"Ġdelic":8018,"Ġproven":8019,"inete":8020,"tuvieron":8021,"iense":8022,"ĠautomÃ³vil":8023,"Ġuniverso":8024,"Ġatribu":8025,"Ġprecios":8026,"ĠcÃŃrculo":8027,"Ġsimilares":8028,"lesias":8029,"Ġcercano":8030,"ĠHall":8031,"ĠenviÃ³":8032,"Ġcamis":8033,"ĠquizÃ¡s":8034,"ĠAndal":8035,"Ġaverigu":8036,"viendo":8037,"ĠtÃ©cnicas":8038,"ĠvÃŃctimas":8039,"susur":8040,"Ġexpuls":8041,"ĠexpediciÃ³n":8042,"Ġramas":8043,"ĠBien":8044,"Ġrecordaba":8045,"Ro":8046,"Ġnucle":8047,"uye":8048,"Ġinci":8049,"Ġaeropuerto":8050,"Ġconsigo":8051,"ĠCampo":8052,"ĠinstituciÃ³n":8053,"Ġpez":8054,"wan":8055,"ild":8056,"Ġempezaron":8057,"ĠGracias":8058,"Ġinvolu":8059,"Ġcrees":8060,"antino":8061,"Ġexcepto":8062,"ĠUp":8063,"PS":8064,"quesa":8065,"Ab":8066,"Ġelemento":8067,"Ġelig":8068,"Ġsuici":8069,"Ġcaz":8070,"Ġvolvieron":8071,"ĠabandonÃ³":8072,"Ġclan":8073,"ĠTelevisiÃ³n":8074,"ĠToledo":8075,"Ġlenguas":8076,"ĠKim":8077,"Ġconside":8078,"ĠcÃ³digo":8079,"Ġelabor":8080,"pole":8081,"ĠNadie":8082,"ĠcinturÃ³n":8083,"ĠalzÃ³":8084,"antÃ³":8085,"Ġpoderes":8086,"hite":8087,"Ġsuma":8088,"Ġdiplom":8089,"ĠMike":8090,"Ġluchar":8091,"ĠÅ":8092,"Ġaspectos":8093,"Ġciertos":8094,"Ġbasado":8095,"Ġdigital":8096,"Ġretroce":8097,"ela":8098,"Ġjuez":8099,"Ġcuen":8100,"ĠAsamblea":8101,"Ġrepor":8102,"rik":8103,"ĠgestiÃ³n":8104,"Ġdirecta":8105,"Ġjuega":8106,"ĠCarl":8107,"âĢĵÂ¿":8108,"Ġ85":8109,"TO":8110,"ĠAnna":8111,"Ġromano":8112,"Ġprimo":8113,"ĠsolÃŃa":8114,"Ġsentimiento":8115,"CuÃ¡n":8116,"quiere":8117,"Ġfotos":8118,"Ġron":8119,"Ġhol":8120,"key":8121,"Ġfundado":8122,"ensor":8123,"ĠponÃŃa":8124,"Ġquie":8125,"Ġclaramente":8126,"Ġdiscurso":8127,"ĠES":8128,"Ġcoger":8129,"ĠNik":8130,"ĠRio":8131,"Mon":8132,"Ġaman":8133,"tain":8134,"Ġlargos":8135,"zu":8136,"Ġataques":8137,"Ġpremios":8138,"Ġbandera":8139,"Ġesfuerzos":8140,"Ġimpon":8141,"ĠcomposiciÃ³n":8142,"ĠRoger":8143,"Ġlanza":8144,"ĠTemporada":8145,"Ġdep":8146,"ĠHill":8147,"Ġ).":8148,"ĠestÃº":8149,"ĠfotografÃŃa":8150,"isten":8151,"ĠParaguay":8152,"Ver":8153,"Ġul":8154,"Ġciudadanos":8155,"ĠCÃ¡mara":8156,"Ġprimavera":8157,"ĠNaciones":8158,"ĠLle":8159,"Ġentrevista":8160,"aÃ±ad":8161,"ĠIgna":8162,"ĠaplicaciÃ³n":8163,"Ġromper":8164,"ĠcaÃŃdo":8165,"Ġdesarrollado":8166,"72":8167,"ĠJaime":8168,"Ġvieron":8169,"Ġdescubiertos":8170,"urias":8171,"Ġtelevis":8172,"Ġviejos":8173,"Ġpeces":8174,"ĠCompaÃ±":8175,"idez":8176,"ĠStan":8177,"iuda":8178,"Ġnoctur":8179,"ÃŃna":8180,"ĠcontestÃ³":8181,"Can":8182,"eds":8183,"ĠVill":8184,"Ġoriginalmente":8185,"Ġdiscre":8186,"ĠMargar":8187,"Ni":8188,"tarlo":8189,"ĠEsper":8190,"Ġodio":8191,"Ġund":8192,"Ġalmacen":8193,"Ã©cord":8194,"ĠFederico":8195,"Ġcarreras":8196,"ĠInternet":8197,"TU":8198,"Ġprove":8199,"Ġnaves":8200,"74":8201,"Ġrelato":8202,"Ġdetener":8203,"ĠXII":8204,"Ġpola":8205,"Ġrecoger":8206,"arÃŃan":8207,"Ġnot":8208,"ĠWol":8209,"ĠLucas":8210,"ĠFuerza":8211,"Ġindividuo":8212,"ingÃ¼":8213,"ĠAmerican":8214,"Ġpienso":8215,"cht":8216,"Ġincapaz":8217,"Ġvid":8218,"tuario":8219,"ĠCenter":8220,"Ġespaldas":8221,"tarle":8222,"ĠuniÃ³n":8223,"ĠBiblioteca":8224,"Ġpersegu":8225,"Ġsentada":8226,"Ġimaginar":8227,"Ã³micos":8228,"Ġdedicado":8229,"tiera":8230,"Ġid":8231,"ĠComunidad":8232,"chan":8233,"Ġpropuesta":8234,"Ġ54":8235,"1998":8236,"Ġsombras":8237,"100":8238,"Do":8239,"ĠMarina":8240,"Ġhecha":8241,"62":8242,"icana":8243,"83":8244,"Ġcuarta":8245,"Ġhermanas":8246,"Ġconvencer":8247,"ĠdedicÃ³":8248,"Ġfren":8249,"ĠDay":8250,"Ġconcierto":8251,"ĠDeportes":8252,"Nos":8253,"pados":8254,"ĠProdu":8255,"ĠfundÃ³":8256,"Ġfundador":8257,"Ġcompu":8258,"rue":8259,"Ġmoderna":8260,"Ġllevaron":8261,"ĠVÃŃctor":8262,"Ġsh":8263,"Ġinfantil":8264,"lace":8265,"Ġcastell":8266,"All":8267,"ĠpapÃ¡":8268,"ĠNar":8269,"Ġroca":8270,"ĠCaracterÃŃsticas":8271,"Ġfer":8272,"Ġdespi":8273,"Ġextranjero":8274,"Ġvidas":8275,"tta":8276,"temp":8277,"ĠNational":8278,"iernes":8279,"Ġ53":8280,"Ġcreada":8281,"ĠtensiÃ³n":8282,"Ġmusul":8283,"ĠÃ¡rabe":8284,"ĠCamb":8285,"Ġaga":8286,"Ġvosotros":8287,"ĠEsp":8288,"ĠFrente":8289,"ĠPhilip":8290,"ridos":8291,"Ġdesconocido":8292,"Ġ1954":8293,"Ã©ticos":8294,"ĠMiss":8295,"ĠdÃ©cadas":8296,"ĠOh":8297,"Mad":8298,"ĠcuÃ¡l":8299,"ĠbritÃ¡nica":8300,"ĠOtras":8301,"ĠIngen":8302,"mbito":8303,"Sh":8304,"82":8305,"Ġpedido":8306,"ĠZo":8307,"ĠBÃ©lgica":8308,"Ġdesierto":8309,"ĠTol":8310,"ĠPrimer":8311,"Ġcuentas":8312,"Ġvaso":8313,"Ġintereses":8314,"ĠPartidos":8315,"Ġpublicada":8316,"Ġenferm":8317,"Ġherram":8318,"Ġentrega":8319,"uerta":8320,"Ġprivada":8321,"Ġperspec":8322,"ĠNico":8323,"Ġactuar":8324,"Ġproto":8325,"Ġtext":8326,"ĠSk":8327,"ĠGlo":8328,"Ġinex":8329,"Ġbolsa":8330,"tum":8331,"Ġnovelas":8332,"Ġviendo":8333,"rupciÃ³n":8334,"Ġposibles":8335,"ĠClasificaciÃ³n":8336,"ĠexcepciÃ³n":8337,"Ġcicl":8338,"ĠfÃ¡cilmente":8339,"Ġtuve":8340,"Ġperfecto":8341,"Ġpistola":8342,"Ġprecip":8343,"Ġaltitud":8344,"egas":8345,"ĠTeam":8346,"Ġincluido":8347,"Porque":8348,"Ġdormitorio":8349,"ĠPersona":8350,"Ġ1943":8351,"tible":8352,"Estaba":8353,"Ġfirma":8354,"Ġreconocido":8355,"Ġador":8356,"Ã©lulas":8357,"Ġ1942":8358,"Ġcandidato":8359,"Ġalas":8360,"Ã©ramos":8361,"Ġanteriormente":8362,"ĠAD":8363,"Å«":8364,"Ġposiciones":8365,"itantes":8366,"dolfo":8367,"Ġpromedio":8368,"ĠmÃºltiples":8369,"Ġalo":8370,"Ġcompuesta":8371,"Ġcolumna":8372,"Ġrique":8373,"ĠMill":8374,"inaciones":8375,"63":8376,"Ġcolombi":8377,"imnas":8378,"Ġboda":8379,"Ġtitulado":8380,"Ġcompetencia":8381,"ĠbaterÃŃa":8382,"ĠdesapareciÃ³":8383,"Ġperu":8384,"Ġarch":8385,"ĠlatÃŃn":8386,"Ñģ":8387,"Ġsuelen":8388,"ĠNorth":8389,"Ġpasajeros":8390,"adilla":8391,"Ġhumil":8392,"Ġ1952":8393,"ĠCin":8394,"ĠIslas":8395,"Ġperros":8396,"urs":8397,"Ġexplicar":8398,"Ġ95":8399,"ĠMarcos":8400,"ãģ":8401,"dencias":8402,"ĠEdward":8403,"ĠofreciÃ³":8404,"ĠTeresa":8405,"Ġcompi":8406,"Tengo":8407,"81":8408,"istiÃ³":8409,"sch":8410,"Ġentorno":8411,"Ġcortes":8412,"Ġcomprome":8413,"zaje":8414,"onado":8415,"Ġantiguas":8416,"Cal":8417,"ĠMarco":8418,"Ġtomando":8419,"Ġcorresponde":8420,"Ġaprender":8421,"elia":8422,"ĠVio":8423,"ĠTy":8424,"Ġformando":8425,"Ġprotagonista":8426,"Ġ%":8427,"Ġpreparado":8428,"vimos":8429,"zob":8430,"Ġcintura":8431,"ĠCaball":8432,"Ã©spe":8433,"Ð¾Ð":8434,"Ġsello":8435,"san":8436,"ĠJoe":8437,"Ġcampamento":8438,"ĠTomÃ¡s":8439,"ĠtendrÃ¡":8440,"tones":8441,"fia":8442,"Ġalegre":8443,"ĠTodas":8444,"Muy":8445,"Ġnecesit":8446,"Ġllave":8447,"ĠGreen":8448,"Ġcog":8449,"Ġafil":8450,"terrÃ¡neo":8451,"Ã³rico":8452,"ĠSteph":8453,"ĠTok":8454,"pulaciÃ³n":8455,"Ġamplio":8456,"ori":8457,"Ġcuantos":8458,"Ġment":8459,"Ġbarra":8460,"mpico":8461,"clopedia":8462,"ĠPrincip":8463,"ĠNick":8464,"Ġaviones":8465,"Ġsovi":8466,"Ġcaptu":8467,"sol":8468,"Ġonce":8469,"Ġbajas":8470,"Ġfing":8471,"Ġ64":8472,"melo":8473,"ĠEstudios":8474,"Ġclubes":8475,"Ġaux":8476,"ĠKir":8477,"ĠtÃ©cnico":8478,"Ġprece":8479,"Mal":8480,"ĠRad":8481,"polis":8482,"ĠMira":8483,"gaz":8484,"ĠDefensa":8485,"Ġdiscip":8486,"ĠCatÃ³lica":8487,"Ġdetalle":8488,"Ġacon":8489,"ĠAÃ©":8490,"iri":8491,"Ġextraordin":8492,"Ġlistas":8493,"ĠgirÃ³":8494,"Ġarquitecto":8495,"ĠSoy":8496,"ĠAlto":8497,"UN":8498,"71":8499,"ĠLegisla":8500,"Ġcubierto":8501,"Ġinvi":8502,"Ġfiestas":8503,"Ġlogrado":8504,"Ġamante":8505,"Ġformato":8506,"une":8507,"Ġentero":8508,"Ġinteresante":8509,"ĠaÃ±adiÃ³":8510,"ciaciones":8511,"ĠFord":8512,"Ġindustrial":8513,"tela":8514,"ĠZel":8515,"ĠtrasladÃ³":8516,"mbo":8517,"ĠseÃ±alÃ³":8518,"Ġllevaban":8519,"Ġobserva":8520,"ĠHarry":8521,"Ġfamiliares":8522,"ĠPlay":8523,"Ġsabemos":8524,"Ġestructuras":8525,"Ġasesino":8526,"iempo":8527,"Ġllevan":8528,"Ġemis":8529,"ÃŃso":8530,"Ġrepent":8531,"ĠIndust":8532,"ĠLiber":8533,"Ġinstalaciones":8534,"ĠTw":8535,"ĠMr":8536,"Ġira":8537,"Ġresidencia":8538,"Ġobede":8539,"79":8540,"Ġfla":8541,"Ġtextos":8542,"venil":8543,"Th":8544,"ĠChampi":8545,"Ġpasaron":8546,"uk":8547,"Ġirri":8548,"ĠTexas":8549,"Ġllamas":8550,"alÃŃ":8551,"ther":8552,"ĠRegiÃ³n":8553,"Ġtormenta":8554,"ĠgeogrÃ¡fica":8555,"ĠÃ¡mbito":8556,"ciles":8557,"urar":8558,"Ġnecesito":8559,"ĠPatri":8560,"2017":8561,"ĠromÃ¡n":8562,"ÃŃculas":8563,"Esto":8564,"Ġcentros":8565,"Ġlibres":8566,"Ġatacar":8567,"Ġmantiene":8568,"ĠvÃŃctima":8569,"Ġescuelas":8570,"mel":8571,"ĠDesarrollo":8572,"Ġcasado":8573,"Ġcomerciales":8574,"ĠOtro":8575,"pp":8576,"Prim":8577,"tenta":8578,"ĠsubiÃ³":8579,"Ġfle":8580,"ĠcolocÃ³":8581,"Ġanciano":8582,"ĠcompeticiÃ³n":8583,"Ġblancas":8584,"Ġdebu":8585,"Ġcapaces":8586,"Ġrealizada":8587,"73":8588,"Ġ1953":8589,"Ġ1949":8590,"53":8591,"Ġpermanecer":8592,"Ã³p":8593,"Ġrecog":8594,"Ġfama":8595,"ĠelectrÃ³n":8596,"Ġcuento":8597,"angel":8598,"Ġpopulares":8599,"Ġnoroeste":8600,"ĠDer":8601,"Ġcuyas":8602,"ĠLaura":8603,"Ġofer":8604,"Ġeduca":8605,"Ġvege":8606,"landes":8607,"Ġjugando":8608,"aÃ±adiÃ³":8609,"turalmente":8610,"ĠFlorida":8611,"ĠnÃºcleo":8612,"dones":8613,"Ġmuro":8614,"cienda":8615,"Ġencargado":8616,"Ġazules":8617,"Ġactiv":8618,"cro":8619,"ĠprÃ³ximo":8620,"ĠTorres":8621,"bara":8622,"Ġ1947":8623,"Ġ1938":8624,"Ġmam":8625,"Ġresiden":8626,"Ġumb":8627,"Aquel":8628,"Ġpredi":8629,"ierda":8630,"Ġveinti":8631,"ĠvehÃŃculos":8632,"1997":8633,"ĠViv":8634,"Ġdol":8635,"ĠDoctor":8636,"ĠMes":8637,"Ġcabec":8638,"omba":8639,"ĠMinistro":8640,"Ġtru":8641,"laga":8642,"Ġpubl":8643,"Fue":8644,"ĠAndalu":8645,"Vol":8646,"Ġgigantes":8647,"ĠStor":8648,"ĠevoluciÃ³n":8649,"Ġvender":8650,"ĠResultados":8651,"pio":8652,"Ġherida":8653,"ĠViena":8654,"Ġinvad":8655,"Ġtemprano":8656,"iff":8657,"Ġfachada":8658,"Ġbandas":8659,"ĠceÃ±o":8660,"endoza":8661,"ĠHugo":8662,"vÃŃ":8663,"Ġsombrero":8664,"ĠvÃŃdeo":8665,"queros":8666,"ĠcrÃŃticas":8667,"Ġdama":8668,"uco":8669,"Ġimpacto":8670,"ĠEug":8671,"ĠbebÃ©":8672,"lle":8673,"Ġcomunes":8674,"ket":8675,"Ġreferencias":8676,"Ġseco":8677,"Ġseries":8678,"Ġtumba":8679,"teza":8680,"iendas":8681,"ĠFac":8682,"ĠMilitar":8683,"denas":8684,"Ġfan":8685,"Ġafro":8686,"Ġlatinos":8687,"Ġagentes":8688,"Ġ1946":8689,"Ġflota":8690,"reste":8691,"vy":8692,"ĠEspaÃ±ol":8693,"Ġplataforma":8694,"Ġparticipantes":8695,"Ġprivado":8696,"Ġox":8697,"Ġcigar":8698,"ĠÃ¡ngel":8699,"Ġpotencia":8700,"ĠhabrÃŃan":8701,"69":8702,"ĠestudiÃ³":8703,"hum":8704,"Ġpropiedades":8705,"ction":8706,"omen":8707,"ĠRoyal":8708,"ometra":8709,"unn":8710,"Ġizquierdo":8711,"Ġparecen":8712,"ĠapoyÃ³":8713,"Ġsug":8714,"ĠKen":8715,"Ġindividuos":8716,"elli":8717,"Ġret":8718,"ĠmontÃ³n":8719,"ĠDemocrÃ¡":8720,"ason":8721,"ĠinmÃ³vil":8722,"Ġconcurso":8723,"Ġhaces":8724,"Ġrepublic":8725,"chus":8726,"Ġrazon":8727,"ĠpÃºblicos":8728,"Ġnubes":8729,"iernos":8730,"ãĤ":8731,"ĠSpor":8732,"Ġnovia":8733,"Ġempezaba":8734,"Ġdices":8735,"ĠAgustÃŃn":8736,"mus":8737,"ĠOeste":8738,"Ġib":8739,"Ġingeniero":8740,"ĠcientÃŃfico":8741,"Ġdistinto":8742,"Ġacre":8743,"Ġabur":8744,"Ġcalma":8745,"Ġleche":8746,"Ġreclam":8747,"Ġhomenaje":8748,"ĠPort":8749,"ĠâĢķ":8750,"Ġequival":8751,"Ã«":8752,"Ġrecuerda":8753,"athan":8754,"Ġorquesta":8755,"Ġinstrumentos":8756,"rum":8757,"Ġimplic":8758,"ĠPatr":8759,"ots":8760,"Ġinglesa":8761,"Ġsubs":8762,"ieras":8763,"oras":8764,"tig":8765,"1995":8766,"ĠNavarra":8767,"Ġajust":8768,"ĠFun":8769,"61":8770,"Ġenfad":8771,"VD":8772,"Ġusando":8773,"mentaciÃ³n":8774,"Ġgenera":8775,"Ġserp":8776,"ĠEran":8777,"arlos":8778,"Ġvapor":8779,"ĠcÃ©lulas":8780,"ĠpenÃŃnsula":8781,"video":8782,"Ġcarro":8783,"Ġacercarse":8784,"Ġapart":8785,"Ġconcur":8786,"ĠdueÃ±o":8787,"ĠCorte":8788,"ĠgrabaciÃ³n":8789,"ĠUE":8790,"Ġpref":8791,"Ġhuesos":8792,"ĠtrÃ¡fico":8793,"ĠconociÃ³":8794,"heim":8795,"ĠWay":8796,"Ġmand":8797,"far":8798,"ĠPart":8799,"ĠraÃŃz":8800,"Ġsuminist":8801,"ĠOtra":8802,"Ġverse":8803,"ĠJones":8804,"Ġacontecimientos":8805,"Ġsupone":8806,"ĠIsla":8807,"Ġbarb":8808,"crip":8809,"ĠCarolina":8810,"ĠReina":8811,"ĠnaciÃ³n":8812,"ĠrespiraciÃ³n":8813,"ĠexplicaciÃ³n":8814,"Ġtermina":8815,"ĠprÃ³xima":8816,"ĠCamp":8817,"Ġfemenina":8818,"Ġgua":8819,"gara":8820,"Ġamarillo":8821,"hab":8822,"Ġespiritu":8823,"kins":8824,"Ġcuerda":8825,"Ġdisposi":8826,"Ġpermiso":8827,"Ġtill":8828,"ĠIgnacio":8829,"Ġodi":8830,"ĠRum":8831,"Ġesque":8832,"Ġacero":8833,"ĠDig":8834,"Ġlectura":8835,"Ġ1937":8836,"ĠSel":8837,"ĠJar":8838,"ĠrÃŃ":8839,"Ġcompeti":8840,"ĠdisposiciÃ³n":8841,"Ġutilizando":8842,"Ġcristianos":8843,"onso":8844,"Dios":8845,"pira":8846,"Ġentiendo":8847,"ĠPanamÃ¡":8848,"Ġbrasile":8849,"bulo":8850,"arÃ¡n":8851,"Ġvuestra":8852,"Ġescenas":8853,"ĠHÃ©":8854,"Ġdomingo":8855,"ĠpodrÃ¡":8856,"dest":8857,"ĠrecordÃ³":8858,"Ġhorm":8859,"Ġabor":8860,"2018":8861,"Ġtriunfo":8862,"Ġsuspen":8863,"ĠcentÃŃ":8864,"Ġestad":8865,"gamos":8866,"ieren":8867,"1996":8868,"Ġobst":8869,"Ġestrateg":8870,"Ġciviles":8871,"ĠVirgin":8872,"Ġlament":8873,"ls":8874,"ĠSimon":8875,"Has":8876,"ĠOriente":8877,"ĠcorriÃ³":8878,"olÃ³gicas":8879,"ĠSor":8880,"anna":8881,"Ġpaciente":8882,"Ġbombar":8883,"ĠfÃ¡brica":8884,"ĠocÃ©ano":8885,"ĠHospital":8886,"Ġpausa":8887,"ĠKal":8888,"Ġincom":8889,"Ġembaj":8890,"ĠCompaÃ±ÃŃa":8891,"iko":8892,"Ġcasco":8893,"Ġcarca":8894,"Ġpuesta":8895,"Ġtranscur":8896,"ĠFis":8897,"ĠBell":8898,"ĠNeces":8899,"ĠSistema":8900,"ÃŃgenes":8901,"Ġreinado":8902,"Ġbotella":8903,"ĠmoviÃ³":8904,"allÃ³":8905,"Ġmapa":8906,"Ġele":8907,"Ġhago":8908,"ĠPic":8909,"Ġpaseo":8910,"elson":8911,"Ġgui":8912,"Ġconsecuencias":8913,"Ġreligiosa":8914,"Ġmejillas":8915,"Ġmargen":8916,"ĠRico":8917,"pÃ©":8918,"Ã±e":8919,"Ġaparte":8920,"smo":8921,"Ġlum":8922,"ĠCic":8923,"ĠNegro":8924,"Ġherido":8925,"emin":8926,"Fu":8927,"ĠmÃ©dicos":8928,"Ġcontado":8929,"Ġasegurar":8930,"ĠBretaÃ±a":8931,"Ġpobres":8932,"Ġcole":8933,"Ġsatisfe":8934,"Ġimpa":8935,"stos":8936,"Ġaument":8937,"Ġdesgracia":8938,"ĠsufriÃ³":8939,"pista":8940,"Ġceremonia":8941,"Ġdestro":8942,"Ġbeber":8943,"ĠRose":8944,"ĠPob":8945,"ĠInternational":8946,"Ġprocesos":8947,"arquÃŃa":8948,"tidi":8949,"Ġsimb":8950,"ĠAvenida":8951,"tilidad":8952,"amora":8953,"ĠsofÃ¡":8954,"ĠHy":8955,"Ġtranquilo":8956,"ĠincreÃŃble":8957,"cuer":8958,"Ã¡metro":8959,"berto":8960,"tienen":8961,"Ġresolver":8962,"eres":8963,"Ġrenunci":8964,"Ġcompa":8965,"Ã©mica":8966,"Ġmercan":8967,"Ġenvol":8968,"Ġpeligros":8969,"Ġtel":8970,"**":8971,"Ġabandonado":8972,"Ġpantalones":8973,"Ġarb":8974,"ĠJoaquÃŃn":8975,"ĠpÃ¡r":8976,"Ġgracia":8977,"ĠsÃŃmbolo":8978,"ciado":8979,"Ġocupado":8980,"ĠacompaÃ±ado":8981,"Ġseguramente":8982,"ĠMerce":8983,"erta":8984,"tadura":8985,"ĠRegional":8986,"Ġinvitados":8987,"susurrÃ³":8988,"Ġideal":8989,"Ġagru":8990,"Ġrevolucion":8991,"gÃ¼enza":8992,"Ġsuger":8993,"Ġcontras":8994,"ĠÃ¡nimo":8995,"ader":8996,"ĠColle":8997,"Ġperdon":8998,"ĠHas":8999,"Ġverte":9000,"ĠComer":9001,"ĠBil":9002,"Ġdesplaz":9003,"mica":9004,"ĠBir":9005,"Ġhierba":9006,"tramos":9007,"Ġreti":9008,"trÃŃa":9009,"zados":9010,"igan":9011,"ken":9012,"iley":9013,"ĠParlamento":9014,"Ġsesenta":9015,"Ġpresentado":9016,"Ã¡rselo":9017,"ĠMendoza":9018,"Ġsuperiores":9019,"Ġculturales":9020,"Ġverdes":9021,"BS":9022,"ĠCultural":9023,"gy":9024,"tipo":9025,"Ġconciertos":9026,"leto":9027,"ĠexistÃŃa":9028,"Ġ1951":9029,"presiÃ³n":9030,"Ġdudas":9031,"ĠLim":9032,"ĠMuchos":9033,"Ġleyenda":9034,"Ġdiv":9035,"Ġcargos":9036,"Ġapariencia":9037,"Ġparroquia":9038,"itarios":9039,"low":9040,"ĠTig":9041,"ĠconstruyÃ³":9042,"tein":9043,"Ġdesay":9044,"ĠSpi":9045,"ĠpreocupaciÃ³n":9046,"52":9047,"ĠRan":9048,"ĠBran":9049,"Ġencab":9050,"ĠtraducciÃ³n":9051,"terÃŃas":9052,"ĠQuin":9053,"Ġcultiv":9054,"Ġcombust":9055,"Ġtrib":9056,"Ġvocal":9057,"Ġ150":9058,"Ġapoder":9059,"PA":9060,"Ġpresa":9061,"ĠSergio":9062,"ĠcuÃ¡nto":9063,"Ġhorrible":9064,"Ġtabla":9065,"Ġcabezas":9066,"Ġencontrarse":9067,"Ġprofundidad":9068,"Ġrever":9069,"ĠIndependiente":9070,"Ġconstruida":9071,"lid":9072,"Ġpaisaje":9073,"Ġferrocarril":9074,"Ja":9075,"ager":9076,"ĠVel":9077,"tone":9078,"ĠBlanca":9079,"Ġtarje":9080,"ficaciones":9081,"tano":9082,"udas":9083,"Ġcrimen":9084,"ĠStreet":9085,"quido":9086,"ĠmÃ¡g":9087,"ĠParecÃŃa":9088,"Ġmezcl":9089,"lov":9090,"uerte":9091,"mografÃŃa":9092,"Hola":9093,"ĠNie":9094,"Ġdaban":9095,"Ġenormes":9096,"ĠopciÃ³n":9097,"Ġinvitado":9098,"ftware":9099,"Ġcruel":9100,"gie":9101,"Ġconsideraba":9102,"derson":9103,"landÃ©s":9104,"ĠPC":9105,"Ġmeta":9106,"enio":9107,"Nada":9108,"bir":9109,"Ġescuch":9110,"Ġestaciones":9111,"Ay":9112,"Ġdificultad":9113,"Ġprofesionales":9114,"ĠEpiso":9115,"Ġconcep":9116,"ĠTown":9117,"Ġmoverse":9118,"ĠEuropea":9119,"secu":9120,"Ġdeseos":9121,"Ġhabitaciones":9122,"izabeth":9123,"Ġdesliz":9124,"Ãºcar":9125,"ĠIll":9126,"Ġsill":9127,"Ġsiguen":9128,"Ġextrem":9129,"tea":9130,"Ġdesas":9131,"arnos":9132,"Ġorg":9133,"ĠSabÃŃa":9134,"ĠDistribuciÃ³n":9135,"Tal":9136,"xa":9137,"Ġdiferencias":9138,"Ġperf":9139,"sel":9140,"ĠdesarrollÃ³":9141,"Ġcontribuy":9142,"Ġintenta":9143,"Ã±ada":9144,"Ġsitios":9145,"Ġamable":9146,"Ġreyes":9147,"ĠAtlÃ¡n":9148,"ĠAnn":9149,"pers":9150,"ĠScott":9151,"Ã¡stica":9152,"Ġpira":9153,"Ġplato":9154,"EspaÃ±a":9155,"ĠviviÃ³":9156,"Ġgrabado":9157,"58":9158,"Ġdiecis":9159,"ĠPierre":9160,"denal":9161,"ĠperiÃ³dicos":9162,"Ġhumanidad":9163,"Ġclientes":9164,"cita":9165,"Pas":9166,"Ġlocura":9167,"ĠAlb":9168,"epres":9169,"ĠLife":9170,"quista":9171,"Ġcateg":9172,"Ġprivi":9173,"Ġagres":9174,"Ġpop":9175,"Ġnormalmente":9176,"itro":9177,"Ġdocumento":9178,"Ġmanga":9179,"ĠFilip":9180,"ĠÃģlvarez":9181,"ĠBet":9182,"Ġconfirm":9183,"Ã¼r":9184,"Ġresponsabilidad":9185,"Ġ04":9186,"Ġrumbo":9187,"Ġaclar":9188,"ĠseguÃŃan":9189,"ĠKat":9190,"Ġzapatos":9191,"ÑĤ":9192,"ganza":9193,"ĠObserv":9194,"Ġelegir":9195,"ĠOx":9196,"Ġviajes":9197,"Ġabsur":9198,"Ġefica":9199,"ĠWh":9200,"ĠharÃ¡":9201,"fecto":9202,"ĠAndalucÃŃa":9203,"Ġcerveza":9204,"Ġcob":9205,"Ġlogra":9206,"tistas":9207,"CO":9208,"Ġtraer":9209,"celo":9210,"IM":9211,"lim":9212,"Ġ1931":9213,"trop":9214,"Ġredes":9215,"Ġconsiderada":9216,"ĠHaw":9217,"ĠBrig":9218,"Ter":9219,"Ġandar":9220,"Ġambi":9221,"icaciones":9222,"Ġraro":9223,"rop":9224,"Ġimperio":9225,"repuso":9226,"utamente":9227,"ĠHernÃ¡ndez":9228,"Ġinicialmente":9229,"ĠgritÃ³":9230,"Ġrocas":9231,"ĠdisputÃ³":9232,"ezÃ³":9233,"more":9234,"Ġaldea":9235,"Ġretras":9236,"oreste":9237,"inastÃŃa":9238,"Ġtumb":9239,"Les":9240,"Ġestuvieron":9241,"ĠindÃŃgenas":9242,"Ġescla":9243,"Ġ59":9244,"Ġorgullos":9245,"Ġitaliana":9246,"Ġdev":9247,"icano":9248,"Ġcomienzos":9249,"Ġigualmente":9250,"ĠSalam":9251,"Ġdespacio":9252,"neos":9253,"agn":9254,"Ġprev":9255,"Ġhuir":9256,"Ġdestaca":9257,"ĠBeat":9258,"Ġ02":9259,"Ġdisponible":9260,"Ġquedan":9261,"ĠOficial":9262,"ĠsÃ³":9263,"Ġfich":9264,"Ġtela":9265,"Ġsonriendo":9266,"ĠcientÃŃficos":9267,"Ġeditor":9268,"ĠLic":9269,"Ġmejilla":9270,"uch":9271,"Ġciclo":9272,"ĠAk":9273,"Ġsimul":9274,"ĠTel":9275,"Ġposibilidades":9276,"Ġequilibrio":9277,"Ġrosa":9278,"Ġcens":9279,"Ġ1933":9280,"uto":9281,"ominado":9282,"ĠXIV":9283,"Ġmac":9284,"Ġdespren":9285,"ĠSupre":9286,"ĠâĢĶÂ¿":9287,"Ġdesf":9288,"chester":9289,"Ġconquista":9290,"erin":9291,"umas":9292,"Ġanual":9293,"Ġasesinado":9294,"ĠSimÃ³n":9295,"ĠfalleciÃ³":9296,"guera":9297,"ĠhabÃŃamos":9298,"gotÃ¡":9299,"Ġplena":9300,"tente":9301,"Ġromana":9302,"ĠSouth":9303,"Ġargentina":9304,"Ġcostado":9305,"ĠTay":9306,"Ġaceler":9307,"ĠVuelta":9308,"Ġsucede":9309,"Ġinteligente":9310,"ĠAC":9311,"ĠHit":9312,"grÃ¡ficos":9313,"fin":9314,"ĠSuperior":9315,"Ġdificultades":9316,"Ġsujeto":9317,"Ġpierna":9318,"Quer":9319,"Quieres":9320,"ĠtocÃ³":9321,"Ġcercana":9322,"Ġeditorial":9323,"Ġfundamental":9324,"jadas":9325,"Ġcomprob":9326,"Ġocupa":9327,"Ġapertura":9328,"Ġorganizaciones":9329,"Ġhijas":9330,"Ġinforma":9331,"ĠVIII":9332,"udos":9333,"Ġdiscos":9334,"Ġsorprendido":9335,"Ġpersonalidad":9336,"ĠRuiz":9337,"Ġconsa":9338,"hor":9339,"Ġcomprobar":9340,"ĠpresentaciÃ³n":9341,"aras":9342,"Ġpudieron":9343,"Ġmoderno":9344,"Todos":9345,"ee":9346,"Ġmonasterio":9347,"Ġasteroides":9348,"Ġahor":9349,"Ġmicro":9350,"ĠSw":9351,"Ġluch":9352,"Ġdeportiva":9353,"ĠserÃ¡n":9354,"Ġpico":9355,"randa":9356,"ĠSum":9357,"ĠChris":9358,"ĠVene":9359,"Ġsel":9360,"Ġmaes":9361,"Ġpudieran":9362,"ĠFri":9363,"dumbre":9364,"Ġinvoluc":9365,"ĠsentÃŃ":9366,"Ġcriatura":9367,"Ġelectr":9368,"exo":9369,"ivio":9370,"ĠPJ":9371,"Ġromanos":9372,"Ġefectu":9373,"Ġsit":9374,"Ġcomedia":9375,"Ġ03":9376,"ston":9377,"ush":9378,"ĠInformaciÃ³n":9379,"Ġmostrar":9380,"Ġexces":9381,"izados":9382,"Ġgoz":9383,"Eres":9384,"Ġfondos":9385,"ĠAmer":9386,"Äį":9387,"Ġpermanente":9388,"inger":9389,"Ġdecor":9390,"ĠEva":9391,"alladolid":9392,"ĠAnt":9393,"piÃ©":9394,"Tienes":9395,"ĠinvasiÃ³n":9396,"grada":9397,"IL":9398,"mad":9399,"Ġmarchar":9400,"Ġnatal":9401,"Ġobjetivos":9402,"gl":9403,"Ġcerrado":9404,"Ġsufrir":9405,"orado":9406,"56":9407,"Ġestan":9408,"ĠvÃŃas":9409,"Ġtol":9410,"Ġformada":9411,"thur":9412,"ĠHonor":9413,"Ġagre":9414,"Ġgolpes":9415,"Ġdenominado":9416,"rill":9417,"ĠasociaciÃ³n":9418,"Ã©nez":9419,"inidad":9420,"udicial":9421,"Ġtub":9422,"ĠConcepciÃ³n":9423,"ĠLA":9424,"ĠEstre":9425,"iesta":9426,"ĠHouse":9427,"Ġlan":9428,"ĠCho":9429,"hem":9430,"Ġend":9431,"Ġsentirse":9432,"Ġneu":9433,"ĠRem":9434,"Ġhispanos":9435,"Ġdepos":9436,"ĠestarÃ¡":9437,"ĠNoruega":9438,"ĠBandera":9439,"Ġinesper":9440,"ĠAlonso":9441,"ĠCort":9442,"ĠMujer":9443,"Ġregistro":9444,"ĠAR":9445,"ĠelÃ©ctrica":9446,"Ġala":9447,"Ġquieren":9448,"54":9449,"ĠPrÃŃncipe":9450,"Ġcura":9451,"Ġconozco":9452,"Ġune":9453,"icias":9454,"Ġcaminar":9455,"Ã©ndez":9456,"ĠinterpretÃ³":9457,"ĠNombre":9458,"ĠagrÃŃ":9459,"Ġvos":9460,"OE":9461,"Ġelectoral":9462,"Ġaventura":9463,"ĠAtenas":9464,"rores":9465,"ĠrÃ©cord":9466,"ĠGalerÃŃa":9467,"MÃ¡s":9468,"yes":9469,"Ġuniforme":9470,"izas":9471,"Ġtrabaja":9472,"risas":9473,"ĠemociÃ³n":9474,"ĠLlev":9475,"ĠcuÃ¡ndo":9476,"Ġquitar":9477,"Ġzar":9478,"ĠCy":9479,"Ġcoches":9480,"Ġcerrada":9481,"ĠAlexander":9482,"Ġdesignado":9483,"Ġdespertar":9484,"Val":9485,"ignaciÃ³n":9486,"CD":9487,"Ġintensidad":9488,"Ġnotable":9489,"ĠSchool":9490,"ĠMedio":9491,"erÃŃas":9492,"Ġestima":9493,"ĠDentro":9494,"Is":9495,"gs":9496,",'":9497,"ĠAudi":9498,"ĠKenn":9499,"Ġclaridad":9500,"Ã±aba":9501,"ĠentregÃ³":9502,"Ġquit":9503,"ificar":9504,"ĠhipÃ³":9505,"ĠmÃºsico":9506,"antil":9507,"Ġbille":9508,"Ġumbral":9509,"Ġchino":9510,"ĠcrÃŃtico":9511,"ilan":9512,"Ġquiera":9513,"ĠocupÃ³":9514,"tiza":9515,"ĠLam":9516,"ĠAre":9517,"Ġcaminos":9518,"quero":9519,"Ġalumnos":9520,"Ġmostraba":9521,"ĠfirmÃ³":9522,"Ġempleo":9523,"ĠLev":9524,"ĠJunto":9525,"ips":9526,"ciencia":9527,"Ġsudor":9528,"TS":9529,"Ġinterac":9530,"Ġimpulso":9531,"ĠexplicÃ³":9532,"ĠcaÃ±Ã³n":9533,"Ġnegras":9534,"toÃ±o":9535,"Ġdormido":9536,"Ġprisioneros":9537,"ifa":9538,"ĠLibert":9539,"Ġgato":9540,"ĠRuta":9541,"ĠencogiÃ³":9542,"Ġextranjeros":9543,"Ġescritos":9544,"Ġafirm":9545,"socia":9546,"tÃ¡ndose":9547,"ety":9548,"ianas":9549,"Ġensay":9550,"Ġcabecera":9551,"ĠStad":9552,"Ġdejaron":9553,"cionÃ³":9554,"ĠLord":9555,"Ġ120":9556,"Ġrestaurante":9557,"Ho":9558,"Ġ250":9559,"âĢ¦?":9560,"Ve":9561,"ĠmarchÃ³":9562,"ĠAmbos":9563,"Ġtin":9564,"ĠAsimismo":9565,"ĠTam":9566,"ĠpÃºblicas":9567,"Ġesclavos":9568,"Ġculto":9569,"cidades":9570,"ĠDre":9571,"ĠAla":9572,"ĠTercera":9573,"Ġsabido":9574,"Ġexplica":9575,"ĠintervenciÃ³n":9576,"eamente":9577,"alia":9578,"Ġnervios":9579,"ĠPaulo":9580,"Ġexcelente":9581,"Ġrapidez":9582,"1994":9583,"Ġpart":9584,"Ġganador":9585,"Ġreh":9586,"Ã³f":9587,"Ġdirigir":9588,"Ġ1934":9589,"ĠclÃ¡sico":9590,"Ġcuchillo":9591,"ĠcomprendiÃ³":9592,"ĠNelson":9593,"ĠÃģr":9594,"Ġvuestro":9595,"ĠAgr":9596,"Ġfortaleza":9597,"ĠLong":9598,"Ġacaso":9599,"Ġtristeza":9600,"Ġplazo":9601,"Ġneo":9602,"ĠestrenÃ³":9603,"esas":9604,"Ġom":9605,"Ġescuad":9606,"Ġalimentos":9607,"ĠTony":9608,"Ġrelacionados":9609,"Ġeuropeos":9610,"Ġamericano":9611,"Ġcaballeros":9612,"elly":9613,"edy":9614,"ĠWilliams":9615,"Ġdestacan":9616,"riles":9617,"Nunca":9618,"Ġpago":9619,"Ġcolumnas":9620,"cismo":9621,"Ġmedicina":9622,"ĠCle":9623,"Ġcinta":9624,"ĠBig":9625,"ĠtraÃŃdo":9626,"ĠWhite":9627,"ajada":9628,"Ġacomo":9629,"ĠEscocia":9630,"Ġple":9631,"enciado":9632,"Ġvale":9633,"ĠFlores":9634,"Ġpersonales":9635,"ĠChart":9636,"gento":9637,"Ġdisim":9638,"Ġabiertos":9639,"Ġlicencia":9640,"ĠincorporÃ³":9641,"Bill":9642,"Ġorgullo":9643,"Ġrelativamente":9644,"Ã¡ticas":9645,"Ġgeneros":9646,"pula":9647,"Ġpatas":9648,"Ġactores":9649,"gaban":9650,"Ġderrib":9651,"Ġaplas":9652,"estia":9653,"ĠrincÃ³n":9654,"Ġcuero":9655,"Äģ":9656,"ars":9657,"ĠLil":9658,"ĠElena":9659,"Ġresidiendo":9660,"ĠTab":9661,"ĠKra":9662,"arch":9663,"Ġpropa":9664,"Ġsoportar":9665,"Ġrasgos":9666,"eval":9667,"omer":9668,"Ġreciente":9669,"ĠCollege":9670,"comentÃ³":9671,"ĠVamos":9672,"Ġreserva":9673,"olos":9674,"Ġrevistas":9675,"ĠAdministraciÃ³n":9676,"Ġhabilidad":9677,"ĠdestrucciÃ³n":9678,"Ġentregar":9679,"Ġcostumb":9680,"ctora":9681,"ĠSede":9682,"Ġespero":9683,"ĠseÃ±ales":9684,"Ġborra":9685,"Ġingleses":9686,"Ġescritorio":9687,"ĠTes":9688,"Ġactuales":9689,"Ġquinto":9690,"Ġgaran":9691,"ĠCF":9692,"Ġdiputado":9693,"Ġdestruir":9694,"virtiÃ³":9695,"ĠFort":9696,"ĠastronÃ³micos":9697,"Ġrestr":9698,"ĠayudÃ³":9699,"Ġdisminu":9700,"Ġresplan":9701,"Ġsalieron":9702,"ĠdeclaraciÃ³n":9703,"enzÃ³":9704,"estad":9705,"Ġconserva":9706,"ĠmÃ©todos":9707,"estran":9708,"ĠLibre":9709,"ĠWalter":9710,"\";":9711,"Ġfic":9712,"Ġmuros":9713,"Ġmotores":9714,"ĠHans":9715,"Ġnecesidades":9716,"crib":9717,"ficientes":9718,"ĠclÃ¡sica":9719,"Ġapla":9720,"ĠFra":9721,"Ġmuerta":9722,"ĠfenÃ³meno":9723,"Ġmemor":9724,"icho":9725,"57":9726,"Ġentera":9727,"ĠOccidental":9728,"uca":9729,"ĠPam":9730,"Ġabsol":9731,"pany":9732,"diÃ³s":9733,"EM":9734,"Ã³nicas":9735,"Ġsuavemente":9736,"2019":9737,"ĠJackson":9738,"mirante":9739,"Ġdescribe":9740,"Ġconvencido":9741,"Ġempleados":9742,"ĠdirÃŃa":9743,"ĠCorn":9744,"Ġileg":9745,"Ġcopias":9746,"menta":9747,"Ġlegal":9748,"graciÃ³n":9749,"Ġrecep":9750,"scar":9751,"Ġ1910":9752,"ĠJacques":9753,"Ġx":9754,"Ã³so":9755,"Ġquerida":9756,"alajara":9757,"ebra":9758,"ĠmantenÃŃa":9759,"ĠDun":9760,"ĠAlbert":9761,"Ġara":9762,"ayas":9763,"ĠHi":9764,"Ġferrovi":9765,"Ġlider":9766,"Ġreforma":9767,"Ġexcep":9768,"fu":9769,"Ġdign":9770,"Ġpuedan":9771,"Ġvisible":9772,"51":9773,"ĠIt":9774,"Ġmagia":9775,"ablos":9776,"ĠNÃ¡":9777,"Ġ1935":9778,"ĠquitÃ³":9779,"Ġmanus":9780,"ĠhÃ¡bitat":9781,"Ġvivido":9782,"ĠMovimiento":9783,"Ġmoneda":9784,"Ġlevantar":9785,"Ġarres":9786,"Di":9787,"Ġconsumo":9788,"Ġincons":9789,"Ġruedas":9790,"Ġpobreza":9791,"Ac":9792,"Ã¸":9793,"Ġparar":9794,"Ġafer":9795,"ĠEconomÃŃa":9796,"ĠCalle":9797,"Ġvoc":9798,"legÃ³":9799,"Ġmonte":9800,"ĠGrand":9801,"ĠCaracas":9802,"Ġ<|":9803,"abell":9804,"mato":9805,"ĠOrganizaciÃ³n":9806,"Soy":9807,"Ġ1932":9808,"Ġaustral":9809,"ĠbesÃ³":9810,"boa":9811,"ĠTiempo":9812,"Ġrama":9813,"oraciones":9814,"Ġllamadas":9815,"Ġirse":9816,"ĠSong":9817,"xonomÃŃa":9818,"igna":9819,"Ġimportaba":9820,"Ġespacios":9821,"ĠCarol":9822,"Ġaparato":9823,"OL":9824,"Ġespectadores":9825,"ross":9826,"Ġ07":9827,"ĠmetiÃ³":9828,"ĠPadre":9829,"Ġinstantes":9830,"Ġrabia":9831,"bamos":9832,"Ġpelea":9833,"Ġtradicionales":9834,"ĠpermitÃŃa":9835,"Ġ'-":9836,"ĠAsturias":9837,"Ġprocur":9838,"Ġhistoriador":9839,"ĠCuerpo":9840,"Ġventaja":9841,"ĠFrances":9842,"Ã¨re":9843,"ĠÃºtil":9844,"Ġcomunidades":9845,"fortun":9846,"Î±":9847,"TC":9848,"PP":9849,"Juan":9850,"Ġconfi":9851,"Ġpoderoso":9852,"Ġpresentan":9853,"ĠJulia":9854,"ĠHungrÃŃa":9855,"Ġfijamente":9856,"Ġaguard":9857,"Ġsemb":9858,"ĠHuman":9859,"ĠRodri":9860,"try":9861,"ĠUnidas":9862,"Ġligero":9863,"Ġentrev":9864,"Ġboc":9865,"Ġprimi":9866,"itt":9867,"ĠfotografÃŃas":9868,"hl":9869,"Ġempezado":9870,"ĠduraciÃ³n":9871,"poraciÃ³n":9872,"Ġcompra":9873,"Ġmejorar":9874,"ĠBogotÃ¡":9875,"Ġconsiderar":9876,"Ġactivo":9877,"ĠsorprendiÃ³":9878,"Ġvientre":9879,"Ġcumple":9880,"tinuÃ³":9881,"Ġpresi":9882,"fun":9883,"Ġdescubrimiento":9884,"ĠprovocÃ³":9885,"Ġviven":9886,"Ġcompartir":9887,"inda":9888,"ĠinÃºtil":9889,"Ġlegisla":9890,"Ġdetenido":9891,"Ġencan":9892,"ĠposesiÃ³n":9893,"Ġenfermo":9894,"ĠValladolid":9895,"Ġnav":9896,"ĠArmada":9897,"cÃ©n":9898,"ĠMexic":9899,"Ġreglas":9900,"ĠagarrÃ³":9901,"Ġimpedir":9902,"ĠPala":9903,"ĠOriental":9904,"trina":9905,"sburgo":9906,"vÃŃan":9907,"dle":9908,"Ta":9909,"ĠGuti":9910,"Ġ1929":9911,"Ġcementerio":9912,"Ã¡i":9913,"Ġcontribu":9914,"minaciÃ³n":9915,"dilla":9916,"Ġcientos":9917,"Ġpleno":9918,"Ġterren":9919,"Ġestudiante":9920,"Ġperspectiva":9921,"ĠlÃ¡mp":9922,"Ġdedicada":9923,"Ġsufrido":9924,"ĠVotos":9925,"usal":9926,"ĠseÃ±ores":9927,"Ġparlam":9928,"vias":9929,"Ġpeligroso":9930,"ariamente":9931,"ĠRoc":9932,"Ġsiguieron":9933,"Ġconstituye":9934,"atar":9935,"rica":9936,"oth":9937,"Ġindustri":9938,"ĠLatino":9939,"ĠSto":9940,"letas":9941,"Ġgrados":9942,"Ġsolitario":9943,"thy":9944,"ĠPes":9945,"lis":9946,"Ġrico":9947,"Ġegip":9948,"Ġrayos":9949,"Ġcocin":9950,"Ġrepos":9951,"encio":9952,"Ġmanz":9953,"Ġartill":9954,"Ġ1914":9955,"Ġperfecta":9956,"Ġmues":9957,"Ġsepul":9958,"Ġmoda":9959,"ĠMassa":9960,"Ġfishes":9961,"atoria":9962,"Ġdie":9963,"Ġtercero":9964,"dallas":9965,"Ġrecin":9966,"Ġpoblaciones":9967,"ET":9968,"mid":9969,"Ġbaloncesto":9970,"imia":9971,"Ġprohi":9972,"Ġexca":9973,"cuerdo":9974,"Durante":9975,"Gran":9976,"Ġescritura":9977,"Ġmental":9978,"cionada":9979,"Ġfamosa":9980,"ĠharÃ©":9981,"Ġcompromiso":9982,"Ġcontexto":9983,"Ġsuperviv":9984,"ĠCondado":9985,"Ġrega":9986,"ĠConde":9987,"Ġreferirse":9988,"Ġchaqueta":9989,"Ġcritic":9990,"ĠoÃŃdos":9991,"Ġ1928":9992,"Ġacabado":9993,"Ġinn":9994,"Ġfilas":9995,"Ġconmo":9996,"allen":9997,"Ġintentaba":9998,"ĠconcentraciÃ³n":9999,"Ġmunicipales":10000,"Ġquedaban":10001,"Ġmortal":10002,"dadas":10003,"Ðº":10004,"Ġtranquila":10005,"usiones":10006,"Ġutilizan":10007,"Ġtramo":10008,"Ġpresentar":10009,"ĠParticip":10010,"Ġguardias":10011,"Ġreligioso":10012,"reza":10013,"Ġintenso":10014,"Ġcenar":10015,"AquÃŃ":10016,"ĠDirecciÃ³n":10017,"uelve":10018,"Ġtrato":10019,"ĠAth":10020,"Ġ09":10021,"Ġacces":10022,"Ġ06":10023,"Ġinfluy":10024,"Ġhidro":10025,"trar":10026,"Ġinstrumento":10027,"Ġayer":10028,"Ġdesaf":10029,"vados":10030,"Ġindis":10031,"Ġindu":10032,"cionario":10033,"Ġquedando":10034,"Ġinj":10035,"Ġsuyos":10036,"Ġafric":10037,"Ġabsolutamente":10038,"pic":10039,"Ġparticularmente":10040,"ĠArturo":10041,"Ġcuadros":10042,"SÃ³lo":10043,"Ġaho":10044,"tudes":10045,"Ġviajar":10046,"ĠArqui":10047,"ĠAwards":10048,"ĠJord":10049,"Ġsaben":10050,"ĠAS":10051,"Ġcanto":10052,"Ġheridas":10053,"IV":10054,"'t":10055,"ienen":10056,"ĠIX":10057,"Ġdebemos":10058,"ĠIsa":10059,"1992":10060,"uste":10061,"Ġrepresentante":10062,"ellos":10063,"Ġejercicio":10064,"ĠincÃ³mo":10065,"Ġsignificaba":10066,"ĠdepÃ³":10067,"Ġestablecido":10068,"Ġfracas":10069,"Ãºan":10070,"Ġsanto":10071,"SeÃ±or":10072,"etts":10073,"Ale":10074,"ĠVega":10075,"ĠMoreno":10076,"Ġcuenca":10077,"ĠdescripciÃ³n":10078,"Ã¡ndal":10079,"Sabes":10080,"Ġcil":10081,"Ġloca":10082,"Ġconvento":10083,"ĠParis":10084,"Ġcolonia":10085,"AF":10086,"Ġpoema":10087,"Ġmexicana":10088,"ĠejecuciÃ³n":10089,"Ġtrabajaba":10090,"Ġapartamento":10091,"Ġregional":10092,"Ġocta":10093,"ĠWood":10094,"ĠniÃ±as":10095,"Ġmedias":10096,"Ġllevando":10097,"Ġcasarse":10098,"telo":10099,"Ġfuncionamiento":10100,"Ġcreciente":10101,"1993":10102,"Ġinferiores":10103,"ĠGi":10104,"mÃ³s":10105,"ĠbritÃ¡nicos":10106,"ĠDinamarca":10107,"Ġconsigue":10108,"Ġ08":10109,"ĠquerÃŃan":10110,"Ġcoro":10111,"ĠBellas":10112,"Ġllamados":10113,"Ġtareas":10114,"59":10115,"ĠMall":10116,"laje":10117,"Ġremedio":10118,"Ġ=<|":10119,"Ġurbano":10120,"ĠHolly":10121,"ĠMunicipio":10122,"kar":10123,"ĠapretÃ³":10124,"riera":10125,"Ġpublicaciones":10126,"Ġestrecho":10127,"doro":10128,"Ġacuer":10129,"ĠBlanco":10130,"Ġmarin":10131,"copa":10132,"Ġinsul":10133,"Ġdeca":10134,"Ġemig":10135,"Ġingreso":10136,"1991":10137,"ĠleÃŃdo":10138,"alax":10139,"ĠMÃ¡laga":10140,"Ġpresidencia":10141,"MS":10142,"vemente":10143,"Ġfusil":10144,"Ġimperial":10145,"cesiÃ³n":10146,"ube":10147,"ĠexpansiÃ³n":10148,"cambi":10149,"ĠSeguridad":10150,"ĠCasi":10151,"ĠGuadalajara":10152,"Ġindividuales":10153,"ĠRÃŃos":10154,"cientes":10155,"ĠestÃ¡ndar":10156,"ĠFl":10157,"ĠcaracterÃŃstica":10158,"ĠNight":10159,"Ġleve":10160,"ĠhistÃ³ricos":10161,"ierro":10162,"Ġmelo":10163,"iedades":10164,"ĠChristian":10165,"Ġculpable":10166,"Ġdemanda":10167,"ĠportuguÃ©s":10168,"Ġnarra":10169,"Ġllegan":10170,"ĠfilÃ³so":10171,"Ġarries":10172,"Ġastu":10173,"ĠNatural":10174,"Ġsuficientemente":10175,"Ġanun":10176,"ĠÃŃnti":10177,"amba":10178,"ĠIz":10179,"paba":10180,"ristas":10181,"zy":10182,"ĠDob":10183,"antado":10184,"Ġvincul":10185,"uyendo":10186,"ĠhÃ¡b":10187,"Ġcuentos":10188,"Ġempleado":10189,"ĠChampion":10190,"sie":10191,"Ġescar":10192,"Ġenfo":10193,"Ġmod":10194,"ĠpatrÃ³n":10195,"Ġsecretos":10196,"Ġ1900":10197,"Ġpoemas":10198,"JosÃ©":10199,"ĠKu":10200,"Ġdesagr":10201,"Ġconclu":10202,"lante":10203,"allÃ³n":10204,"Ġinvent":10205,"Ġescritores":10206,"Ġpinturas":10207,"Ġretirada":10208,"ĠGio":10209,"Sab":10210,"ata":10211,"ĠdenominaciÃ³n":10212,"\"),":10213,"Ġanillo":10214,"ĠRaÃºl":10215,"aliciÃ³n":10216,"ĠEmb":10217,"ĠCristina":10218,"Ġfum":10219,"Ġpresu":10220,"ĠSalamanca":10221,"ĠNet":10222,"ĠPolicÃŃa":10223,"Ġestadounidenses":10224,"Ġolvidar":10225,"ĠhÃ©roe":10226,"Ġbases":10227,"Ġinfec":10228,"Ġhipo":10229,"Ġreparto":10230,"Ġpusieron":10231,"tarÃ¡":10232,"Ġpuro":10233,"tirse":10234,"Ġdemostrar":10235,"Ġevalu":10236,"Ġplatos":10237,"Ġfija":10238,"Ġfederal":10239,"Tom":10240,"ĠaceptÃ³":10241,"ĠEscri":10242,"itri":10243,"ĠOne":10244,"ĠIns":10245,"Ġsupongo":10246,"Ġbrillantes":10247,"Ġalquil":10248,"Ġrequer":10249,"ĠEnter":10250,"Ġaltar":10251,"ĠasiÃ¡ticos":10252,"ĠSalud":10253,"ĠSocialista":10254,"loy":10255,"Ġinvestigaciones":10256,"Ġestatal":10257,"junto":10258,"ĠClara":10259,"Ġfrust":10260,"ĠdirigÃŃa":10261,"ĠMora":10262,"ĠAuto":10263,"TambiÃ©n":10264,"larse":10265,"ĠQuÃ©":10266,"Ġaliment":10267,"Ġadivin":10268,"Ġchi":10269,"ĠMontevideo":10270,"remo":10271,"Ġanf":10272,"ĠMichel":10273,"rillos":10274,"Ġnervioso":10275,"gh":10276,"ĠTecn":10277,"ĠpertenecÃŃan":10278,"Ġguerras":10279,"ĠGuardia":10280,"ĠolÃŃmpicos":10281,"1990":10282,"sche":10283,"Ġoriginales":10284,"recciÃ³n":10285,"Ãª":10286,"ogle":10287,"ĠconexiÃ³n":10288,"zco":10289,"ĠmÃºsicos":10290,"Ġentusiasmo":10291,"ĠartÃŃstica":10292,"wen":10293,"Ġactiva":10294,"Sta":10295,"Ã¡z":10296,"Ġenfermedades":10297,"ĠatmÃ³s":10298,"ĠStra":10299,"Ġindios":10300,"Ġdesaparecer":10301,"Rob":10302,"right":10303,"Ġcastellano":10304,"Ġproclam":10305,"ĠFron":10306,"Ġremon":10307,"tha":10308,"Ġauton":10309,"domin":10310,"ÃĵN":10311,"Ġacor":10312,"Ġapell":10313,"irmar":10314,"ĠScience":10315,"onduras":10316,"ĠAssocia":10317,"ĠCapitÃ¡n":10318,"ÃŃvar":10319,"side":10320,"Ġlateral":10321,"ĠFemen":10322,"Ġoch":10323,"Ġdescanso":10324,"Ġoferta":10325,"hibiciÃ³n":10326,"ĠBurgos":10327,"Ġnove":10328,"ĠvergÃ¼enza":10329,"ĠimaginaciÃ³n":10330,"ĠÃ³pera":10331,"Ġ1918":10332,"ĠElizabeth":10333,"\").":10334,"Ġagricultura":10335,"Ġim":10336,"ĠtripulaciÃ³n":10337,"Ġsecundaria":10338,"ezca":10339,"Ġalcohol":10340,"Ġdiscur":10341,"Ġtemblor":10342,"Ġventan":10343,"Ġaudiencia":10344,"ĠCortes":10345,"cenas":10346,"Ġdespo":10347,"ĠLÃŃnea":10348,"ĠHot":10349,"Ġdiga":10350,"ĠMurcia":10351,"Ġdefinitiva":10352,"MA":10353,"tase":10354,"ĠLaw":10355,"eae":10356,"ĠsÃº":10357,"ĠconclusiÃ³n":10358,"Ġdemonios":10359,"Ġseda":10360,"Ġtiendas":10361,"gui":10362,"ĠKon":10363,"Ġentrado":10364,"penas":10365,"vila":10366,"Ġalivio":10367,"ĠArena":10368,")',":10369,"kh":10370,"restre":10371,"ĠcomparaciÃ³n":10372,"ĠveÃŃan":10373,"ĠcontinÃºa":10374,"Ġmiradas":10375,"ĠpaÃ±":10376,"ĠenseÃ±anza":10377,"Pla":10378,"Ġpac":10379,"Ġcae":10380,"Ġdecisiones":10381,"ĠMarie":10382,"iadas":10383,"ĠWilson":10384,"adi":10385,"ĠpreguntÃ©":10386,"ĠWat":10387,"ĠSÃ£o":10388,"Ġsolas":10389,"ĠdebutÃ³":10390,"lanos":10391,"Ġpata":10392,"Ġmedallas":10393,"Ġrefugio":10394,"ansas":10395,"Har":10396,"tadora":10397,"ĠMul":10398,"ĠVasco":10399,"ĠAlgo":10400,"ĠSeries":10401,"ĠobligÃ³":10402,"Ġnecesaria":10403,"ĠJaneiro":10404,"Ġcontener":10405,"Ġbella":10406,"Ġtalento":10407,"istros":10408,"ciano":10409,"ĠocupaciÃ³n":10410,"ĠQuerÃŃa":10411,"Ġestando":10412,"Ġestreme":10413,"Ġsolos":10414,"ĠGalicia":10415,"ĠGusta":10416,"Ġglobal":10417,"Ġsaberlo":10418,"Ġguarda":10419,"Ġnom":10420,"ĠInte":10421,"Ġdescrito":10422,"Ġapropi":10423,"ĠestÃ¡bamos":10424,"Ġporta":10425,"Ġcostumbres":10426,"eng":10427,"ĠhabÃ©is":10428,"ĠEntr":10429,"ting":10430,"ĠYoung":10431,"dre":10432,"Ġvib":10433,"ĠinterrumpiÃ³":10434,"Ġbala":10435,"ĠHace":10436,"Ġacerc":10437,"Ġpreocupar":10438,"Ġ62":10439,"Ġpolic":10440,"ĠGri":10441,"ĠEsteban":10442,"Ġ66":10443,"Ġventas":10444,"ĠBoston":10445,"letismo":10446,"ĠTurquÃŃa":10447,"ĠJoan":10448,"Ġinmig":10449,"Ġvivos":10450,"eh":10451,"ÃŃrez":10452,"ĠbahÃŃa":10453,"Ġmuestran":10454,"ĠreconociÃ³":10455,"ĠpromociÃ³n":10456,"ĠEstaciÃ³n":10457,"visible":10458,"Ã´":10459,"Ġvam":10460,"chusetts":10461,"Ġposiblemente":10462,"ĠJr":10463,"Ġms":10464,"ĠGib":10465,"ĠraÃŃces":10466,"Ġreducir":10467,"gle":10468,"Ġevidencia":10469,"Ġdenominada":10470,"Ġjornada":10471,"Ġregalo":10472,"Ġdivor":10473,"Ġavance":10474,"ĠFI":10475,"ĠVictor":10476,"Ã©e":10477,"Ġviviendo":10478,"Ġcomentarios":10479,"usia":10480,"Ġdisfrutar":10481,"ĠPosiciÃ³n":10482,"ĠcÃ¡ncer":10483,"abal":10484,"ĠÃ³rgano":10485,"campeÃ³n":10486,"Ġhermoso":10487,"ĠGold":10488,"Ġencu":10489,"ĠAÃºn":10490,"ĠAsh":10491,"ĠHÃ©ctor":10492,"Ġave":10493,"ĠconvirtiÃ©ndose":10494,"DA":10495,"ittle":10496,"Ġreson":10497,"Î¿":10498,"ĠCompe":10499,"ĠlÃ³gica":10500,"Ġlist":10501,"lyn":10502,"Ġcliente":10503,"Ã¡ndolos":10504,"Ġestric":10505,"ĠJohnson":10506,"iev":10507,"cadores":10508,"ĠRobin":10509,"ĠresoluciÃ³n":10510,"Ġpacientes":10511,"Ġvertic":10512,"ifinales":10513,"Ġinsec":10514,"ĠGÃ©n":10515,"ĠMuy":10516,"Ġhayan":10517,"Ġsentarse":10518,"ĠmÃ¡quinas":10519,"Ġriqueza":10520,"Ġponiendo":10521,"Ġchileno":10522,"ĠvolverÃŃa":10523,"ĠsatisfacciÃ³n":10524,"nm":10525,"Ġcomarca":10526,"istencia":10527,"ĠFuente":10528,"Ġestatua":10529,"lanta":10530,"Ġmonumento":10531,"Ġrecientemente":10532,"Dan":10533,"Ġeuropeo":10534,"Segu":10535,"ĠIra":10536,"ĠEric":10537,"Ġdirige":10538,"ÃŃbulo":10539,"cones":10540,"ĠDoug":10541,"dura":10542,"Ġoscuras":10543,"ĠDic":10544,"ĠcruzÃ³":10545,"Ġdistinta":10546,"fel":10547,"ĠEar":10548,"Ġencontramos":10549,"Ġacumul":10550,"Ã©ndolo":10551,"Ġaceite":10552,"Ã¡zar":10553,"Ġsabor":10554,"yste":10555,"ĠAnto":10556,"ĠHigh":10557,"Ġentidad":10558,"ĠcientÃŃfica":10559,"Ġbat":10560,"Ġconsta":10561,"ĠEP":10562,"edades":10563,"ĠdurÃ³":10564,"Ġact":10565,"ĠAlfredo":10566,"ĠMonum":10567,"ĠVirginia":10568,"Ġleal":10569,"ĠotoÃ±o":10570,"ĠAzul":10571,"cinco":10572,"ganos":10573,"Ġcomenzar":10574,"Ġinstrucciones":10575,"Ġdefinitivamente":10576,"sy":10577,"ompe":10578,"derse":10579,"Ġderiva":10580,"Ġestatu":10581,"tnam":10582,"Ġbiz":10583,"Ġocurrir":10584,"Ġaumentar":10585,"ĠAtlÃ¡ntico":10586,"ĠsabÃŃan":10587,"Ġ1924":10588,"inadas":10589,"Ġcabe":10590,"ĠMilÃ¡n":10591,"Ġtotalidad":10592,"ĠÃ©stos":10593,"ĠMercedes":10594,"Ġnad":10595,"liar":10596,"Ġbuscaba":10597,"ĠLady":10598,"ller":10599,"cedentes":10600,"Ġsuspiro":10601,"ĠPartici":10602,"ĠAqu":10603,"ĠsÃ³l":10604,"ĠdiÃ¡metro":10605,"ĠlÃŃderes":10606,"politana":10607,"ĠSilva":10608,"Ġtrayectoria":10609,"ĠcentÃŃmetros":10610,"Ġllaman":10611,"ĠprÃ³xim":10612,"Ġetapas":10613,"ĠcategorÃŃas":10614,"Ġelegante":10615,"ÃŃfer":10616,"ĠextendiÃ³":10617,"ĠServicio":10618,"Ġdeses":10619,"Ã©rrez":10620,"ĠCampeones":10621,"Ġrespirar":10622,"ingham":10623,"Ġusuarios":10624,"Ġcodi":10625,"ĠCorona":10626,"cioso":10627,"Ġdeporte":10628,"ĠNan":10629,"Ġmisterio":10630,"Ġ63":10631,"judi":10632,"ĠclÃŃn":10633,"Ġesfor":10634,"Ġ68":10635,"Ġgigante":10636,"Ã³mica":10637,"Ġediciones":10638,"ĠHitler":10639,"hard":10640,"Ã¡frica":10641,"ĠartÃŃstico":10642,"Ġrid":10643,"Ġdistinguir":10644,"Ã¡neo":10645,"ĠZelanda":10646,"Ġ76":10647,"Ġvenganza":10648,"ĠdiscusiÃ³n":10649,"Ġvistazo":10650,"Ġpide":10651,"Ġsoledad":10652,"zobispo":10653,"ceae":10654,"boc":10655,"Ġutilizada":10656,"Ad":10657,"IO":10658,"ĠKy":10659,"Ã³logos":10660,"ĠescuchÃ³":10661,"Ġintu":10662,"Ġiniciativa":10663,"Ġnoreste":10664,"Ġcolina":10665,"tinas":10666,"Ġprobar":10667,"iki":10668,"Ġaliados":10669,"Ã³crata":10670,"Ġficti":10671,"ĠatmÃ³sfera":10672,"Ġ1917":10673,"Ġestrecha":10674,"ulado":10675,"Ġcruzar":10676,"Ġrural":10677,"Mejor":10678,"Ġadultos":10679,"Ġexclusivamente":10680,"Dos":10681,"ĠHonduras":10682,"ĠTrabajo":10683,"Ġintr":10684,"oli":10685,"ĠBook":10686,"ĠDub":10687,"Ġcomentario":10688,"Ġfacilidad":10689,"Fishes":10690,"ĠJerusal":10691,"ĠÃį":10692,"ĠMassachusetts":10693,"ĠPublica":10694,"Ġmonedas":10695,"ĠDVD":10696,"Pal":10697,"Ġoportun":10698,"ule":10699,"Ġmig":10700,"cilla":10701,"ury":10702,"feo":10703,"ĠMid":10704,"ĠExisten":10705,"Ġgriega":10706,"tif":10707,"Ġincrement":10708,"Ġcantar":10709,"IT":10710,"gente":10711,"ĠGoogle":10712,"ueve":10713,"Ġbomba":10714,"Ġconducta":10715,"bidas":10716,"Ġchis":10717,"ĠcompaÃ±ÃŃas":10718,"ĠconservaciÃ³n":10719,"Ġobservaba":10720,"Ġcompla":10721,"psis":10722,"ĠRick":10723,"ĠStr":10724,"Ġviuda":10725,"Ġintentado":10726,"Ġprovis":10727,"Ġ98":10728,"siciÃ³n":10729,"Ġincur":10730,"Ġsonidos":10731,"ĠRecon":10732,"ĠNavidad":10733,"ĠTribunal":10734,"Ġentrenamiento":10735,"ĠAlta":10736,"garo":10737,"ĠRamÃŃrez":10738,"Ġrema":10739,"Ġdocumental":10740,"Ġâ":10741,"Ġreba":10742,"ĠcaÃŃa":10743,"ĠLang":10744,"EP":10745,"Ġafroamericanos":10746,"Ġdimensiones":10747,"ĠFred":10748,"ĠGC":10749,"ĠinformÃ³":10750,"ĠcaÃ±ones":10751,"ĠGutiÃ©rrez":10752,"vez":10753,"Ġofens":10754,"Ġpru":10755,"Ġtelef":10756,"tambiÃ©n":10757,"Ġsalvaje":10758,"Ġ1000":10759,"ĠTÃ©cn":10760,"utas":10761,"Ġcueva":10762,"entimiento":10763,"Ġjugue":10764,"Ġcorrespondiente":10765,"ĠUcran":10766,"ĠsonreÃŃr":10767,"diales":10768,"egr":10769,"inea":10770,"quito":10771,"lago":10772,"blas":10773,"ĠcrÃŃticos":10774,"Ġalegr":10775,"Ã¶r":10776,"vania":10777,"ĠJacob":10778,"ĠEstu":10779,"Ġ72":10780,"mÃ¡ticos":10781,"Ġinfierno":10782,"Ã¡nicos":10783,"Ġdecreto":10784,"Ġdestacar":10785,"Ġconocimientos":10786,"Ġtorpe":10787,"Ġmodern":10788,"Ġfro":10789,"Ġseg":10790,"ĠutilizÃ³":10791,"Ġrival":10792,"ometraje":10793,"Ġaconse":10794,"ĠOxford":10795,"ĠcorrÃŃa":10796,"Ġ1925":10797,"Ġamerin":10798,"ĠSociety":10799,"Ġcron":10800,"Ġapellido":10801,"deÃ³":10802,"Ġmuch":10803,"Ġcontinente":10804,"Ġtendencia":10805,"ĠAnexo":10806,"Ġ1919":10807,"CAP":10808,"ĠCÃ¡diz":10809,"Ġhuevos":10810,"wis":10811,"Ġ1912":10812,"ĠKarl":10813,"Ġcelebra":10814,"ĠÃŃndice":10815,"Acaso":10816,"ĠSteve":10817,"ĠsuspirÃ³":10818,"Ġrecinto":10819,"ĠSr":10820,"ĠÃ¡lbumes":10821,"Ġenro":10822,"Ġ1927":10823,"ĠÃģlvaro":10824,"ĠmillÃ³n":10825,"Ġescribe":10826,"ĠWes":10827,"ustos":10828,"Ġ600":10829,"Ġvacaciones":10830,"UC":10831,"ĠcombinaciÃ³n":10832,"bat":10833,"ĠParece":10834,"Ġvs":10835,"Ġsonora":10836,"tito":10837,"Ġabrigo":10838,"Ġdurm":10839,"Ġhaberlo":10840,"ĠRodrigo":10841,"ĠCaribe":10842,"Ġorganizado":10843,"ĠgÃ©neros":10844,"ĠdoÃ±a":10845,"Ġejemplos":10846,"Ġdictadura":10847,"Ġretrato":10848,"Ġalianza":10849,"Ġperdida":10850,"ĠPerson":10851,"dney":10852,"Ġnobles":10853,"ĠJefe":10854,"ĠAun":10855,"ĠGanÃ³":10856,"ionÃ³":10857,"ĠModer":10858,"ĠCoun":10859,"Ġagujero":10860,"ĠCO":10861,"gata":10862,"Ġsectores":10863,"cialmente":10864,"ural":10865,"Ġgritar":10866,"ĠOrig":10867,"Ġintelectual":10868,"Ġsirv":10869,"jaban":10870,"ĠdinastÃŃa":10871,"ĠVera":10872,"Ġmierda":10873,"Ġdivertido":10874,"Ġuniversal":10875,"Ġreligiosas":10876,"Ġparroqui":10877,"uck":10878,"sec":10879,"Ġrepresentantes":10880,"Ġcanales":10881,"ĠTodavÃŃa":10882,"ĠcantÃ³n":10883,"Ġcoron":10884,"ĠUEFA":10885,"Entre":10886,"ĠMarta":10887,"maras":10888,"Ġmedieval":10889,"1989":10890,"Fe":10891,"arra":10892,"ĠNep":10893,"Ġlocalidades":10894,"ĠdaÃ±os":10895,"Ġsumer":10896,"Ġmsnm":10897,"ĠPeÃ±a":10898,"Ġadvers":10899,"Ġlav":10900,"Ġcaras":10901,"line":10902,"ĠMauri":10903,"bablemente":10904,"ĠmovÃŃa":10905,"umer":10906,"Ġentreten":10907,"ĠMah":10908,"Ġvirtud":10909,"ĠMuse":10910,"Ġordenador":10911,"Ġ800":10912,"ondo":10913,"ficamente":10914,"edores":10915,"medi":10916,"Ġmete":10917,"Ġdocument":10918,"Ġmandato":10919,"Ġfruto":10920,"Ġpuntu":10921,"ĠTermin":10922,"ĠEmilio":10923,"Ġrusa":10924,"ieta":10925,"Ġdoy":10926,"ĠCuenta":10927,"bao":10928,"ĠBau":10929,"ift":10930,"gante":10931,"tez":10932,"ĠNaciÃ³":10933,"ĠVenecia":10934,"Ġespacial":10935,"Ġfactor":10936,"ladas":10937,"ĠMiemb":10938,"Ġriv":10939,"ÃŃv":10940,"Ġturb":10941,"iebre":10942,"ĠPuebla":10943,"Ġruinas":10944,"ĠoÃŃa":10945,"quita":10946,"Ġimpre":10947,"ĠdiÃ³":10948,"ĠdefiniciÃ³n":10949,"ĠRese":10950,"ĠposeÃŃa":10951,"Ġconductor":10952,"Ġrebo":10953,"udal":10954,"ebo":10955,"ĠAllen":10956,"Ġbuque":10957,"ĠAÃ©rea":10958,"ĠpeticiÃ³n":10959,"ĠIvÃ¡n":10960,"Ġformal":10961,"Ġtropical":10962,"EG":10963,"ĠtransmisiÃ³n":10964,"Ġjer":10965,"ĠCastell":10966,"Ġ1922":10967,"Ġvencer":10968,"Ġmadru":10969,"Ġtib":10970,"ĠShow":10971,"ors":10972,"ĠsacudiÃ³":10973,"Ġfur":10974,"Ġsetenta":10975,"udia":10976,"ĠEver":10977,"ĠBatalla":10978,"Ġcolocar":10979,"Ġdiera":10980,"Ġdepende":10981,"Ġborder":10982,"Ġ69":10983,"Ġgre":10984,"Ġviviendas":10985,"Ġgraves":10986,"Ġcambia":10987,"uestro":10988,"Ġhorizonte":10989,"sul":10990,"deste":10991,"Ġvenez":10992,"ĠubicaciÃ³n":10993,"ĠguÃŃa":10994,"ĠexplosiÃ³n":10995,"ĠRin":10996,"Ġ61":10997,"ĠAutÃ³noma":10998,"Ġfestival":10999,"Ġfracaso":11000,"ĠVideo":11001,"Ġcamiseta":11002,"ĠIgu":11003,"John":11004,"Ġcuantas":11005,"daje":11006,"Ġbrillo":11007,"ĠconfusiÃ³n":11008,"grÃ¡ficas":11009,"ĠAnth":11010,"cidentes":11011,"Ġdecidir":11012,"ÃŃsmo":11013,"ĠCompany":11014,"Ġalrededores":11015,"Ġanima":11016,"ĠBab":11017,"Ġalivi":11018,"ĠReci":11019,"Ġcuestiones":11020,"ĠRug":11021,"ĠmarcÃ³":11022,"Ġtaza":11023,"Ġsituaciones":11024,"nam":11025,"ĠUniversitario":11026,"Ġacercaba":11027,"Ġpendiente":11028,"ombres":11029,"dador":11030,"Ġcausas":11031,"ĠZona":11032,"Aunque":11033,"Ġpreparar":11034,"Vaya":11035,"tarme":11036,"ĠMirÃ³":11037,"raban":11038,"ĠColumb":11039,"Ġcelebrar":11040,"conoci":11041,"Ġsaque":11042,"ĠsuponÃŃa":11043,"ĠCatalina":11044,"iosos":11045,"ĠFox":11046,"Ġroto":11047,"jeras":11048,"Ġavenida":11049,"ĠIndependencia":11050,"ĠRy":11051,"Ġrenta":11052,"Ġfechas":11053,"ĠRomero":11054,"ĠjurÃŃ":11055,"Ġ1926":11056,"ĠadaptaciÃ³n":11057,"Ġfiscal":11058,"ĠVerde":11059,"ĠSudÃ¡frica":11060,"ĠDC":11061,"roeste":11062,"Ġjardines":11063,"idar":11064,"Ġcasta":11065,"Reg":11066,"Ġaflu":11067,"Ġhabilidades":11068,"laves":11069,"ronto":11070,"Ġjefes":11071,"Ġderru":11072,"ĠcelebrÃ³":11073,"Ġpreocupado":11074,"ĠCr":11075,"Ġpastor":11076,"Ġrastro":11077,"ĠLatina":11078,"Ġreligiosos":11079,"ĠlÃŃquido":11080,"Ġemociones":11081,"ĠNu":11082,"ĠKn":11083,"Ġcondujo":11084,"jÃ©rcitos":11085,"vich":11086,"evit":11087,"Ġoficinas":11088,"Ġcurva":11089,"Ġcomprende":11090,"ĠgalerÃŃa":11091,"teto":11092,"Ġcose":11093,"ĠBolÃŃvar":11094,"Ġlector":11095,"Ġvictorias":11096,"ĠÃ©xitos":11097,"Ġjuris":11098,"Ġcober":11099,"vida":11100,"Ġdada":11101,"Ġvenezol":11102,"Ġviernes":11103,"Ġfant":11104,"donos":11105,"Ġrodeado":11106,"Ġaventuras":11107,"Ġcardenal":11108,"ĠAT":11109,"Ġdibujo":11110,"Ġfactores":11111,"secuciÃ³n":11112,"ĠbÃ³":11113,"ĠdesapariciÃ³n":11114,"ĠNov":11115,"ĠCuatro":11116,"Ġinicios":11117,"ĠCru":11118,"itores":11119,"nesto":11120,"Ġmanio":11121,"Ġhero":11122,"ĠAlan":11123,"Total":11124,"Ġ67":11125,"ĠpertenecÃŃa":11126,"Ġdibujos":11127,"rÃ¡s":11128,"ĠtirÃ³":11129,"Ġpoblado":11130,"Ġinsign":11131,"graph":11132,"Ġarchi":11133,"ĠsÃ©pti":11134,"Ġcubrir":11135,"Ġbroma":11136,"ĠpuÃ±":11137,"ĠSarah":11138,"Ġvela":11139,"ĠTuvo":11140,"ĠprÃ¡cticas":11141,"Ġamerindios":11142,"ĠJuliÃ¡n":11143,"Ġnormas":11144,"Ġtesis":11145,"uracÃ¡n":11146,"ĠgrÃ¡f":11147,"ĠSent":11148,"Ġsul":11149,"ĠVista":11150,"Ġvestidos":11151,"orca":11152,"Ġencabez":11153,"ĠChampionship":11154,"Ġnovio":11155,"traciÃ³n":11156,"Ġincendio":11157,"Ġ1923":11158,"Ġsolem":11159,"Ġconocidas":11160,"Ġdarme":11161,"alizados":11162,"ĠRojo":11163,"Ġmachos":11164,"ĠFuentes":11165,"Ġdesembar":11166,"Ġ97":11167,"ĠincluÃŃa":11168,"Ġeuros":11169,"ĠGuz":11170,"ĠHil":11171,"ĠAlma":11172,"Ġrevela":11173,"Ġ74":11174,"Ġsensa":11175,"Ġincluida":11176,"Ġenviar":11177,"Dis":11178,"ĠGustavo":11179,"Ã¼n":11180,"Ġarist":11181,"Ġmatado":11182,"ĠEquipos":11183,"Ġdescubre":11184,"Ġoscuros":11185,"Ġrespal":11186,"Ġexpec":11187,"bano":11188,"iversario":11189,"Ġsureste":11190,"Ġfuria":11191,"Os":11192,"apar":11193,"ĠBritÃ¡n":11194,"Ã§o":11195,"ĠRal":11196,"Ã±Ã³n":11197,"guo":11198,"Ġterrenos":11199,"ĠFile":11200,"Ġarchivos":11201,"oper":11202,"Ġoreja":11203,"Ġdevo":11204,"ĠPrograma":11205,"Ġliteraria":11206,"ĠÃĵscar":11207,"Ġrein":11208,"of":11209,"ĠNatal":11210,"Ġinstituto":11211,"Ġintercambi":11212,"ĠvacÃŃa":11213,"ĠTaylor":11214,"red":11215,"Ġimprovis":11216,"ĠDN":11217,"Ġheridos":11218,"ĠTime":11219,"ĠPho":11220,"Ġgravedad":11221,"ĠAndrew":11222,"ĠCup":11223,"sey":11224,"ĠBrian":11225,"ĠVoy":11226,"Ã³bal":11227,"Ġbancos":11228,"ĠseparaciÃ³n":11229,"Ġtorn":11230,"ĠdiseÃ±ado":11231,"lesi":11232,"nar":11233,"Ġproducida":11234,"pitiÃ³":11235,"Ġ1921":11236,"Ġdisfra":11237,"ĠnÃ¡":11238,"Ġdeterminado":11239,"Ġejemplares":11240,"Ġeuropea":11241,"Ġochenta":11242,"Ġcontrad":11243,"Ġnaran":11244,"ĠUcrania":11245,"Ġpade":11246,"Ġalmo":11247,"ĠGeorgia":11248,"ĠMadre":11249,"ĠEdiciones":11250,"ĠGF":11251,"ĠIsi":11252,"asen":11253,"Ġcontemplar":11254,"Ġamenaz":11255,"ĠBi":11256,"Ġtamb":11257,"Ãºmenes":11258,"Ġvigor":11259,"mier":11260,"trica":11261,"ĠdesesperaciÃ³n":11262,"pica":11263,"Ã©lix":11264,"Ġtrabajado":11265,"Ġnerviosa":11266,"ĠnotÃ³":11267,"ĠaprobaciÃ³n":11268,"Ġtemporal":11269,"Ġinformes":11270,"pur":11271,"Ġperpe":11272,"Ġbotas":11273,"Ġinevit":11274,"dicas":11275,"Ġdecirlo":11276,"ĠBrus":11277,"Ġcomponentes":11278,"Ġestrategia":11279,"ĠLand":11280,"Ġcristiana":11281,"rÃŃo":11282,"ĠidÃ©n":11283,"mm":11284,"jados":11285,"ĠNas":11286,"Ġentraron":11287,"ÃŃz":11288,"Ġasalto":11289,"Je":11290,"Ġtonel":11291,"ĠsurgiÃ³":11292,"Ġmetido":11293,"bury":11294,"aje":11295,"Ġperdiendo":11296,"trico":11297,"ĠLondon":11298,"dom":11299,"Ġdestinado":11300,"ĠAÃ±os":11301,"ĠcÃ©le":11302,"Ġruidos":11303,"Antes":11304,"ĠPapa":11305,"Ġanal":11306,"urnal":11307,"dremos":11308,"ĠaquÃ©":11309,"Ġdescrita":11310,"Ġdur":11311,"ĠcelebraciÃ³n":11312,"Ġembajador":11313,"Ġconcreto":11314,"Ġrelacionado":11315,"ĠJimÃ©nez":11316,"Ġ77":11317,"Ã©j":11318,"Mus":11319,"ats":11320,"Ġreten":11321,"Ġdeterminar":11322,"icial":11323,"ĠSean":11324,"dows":11325,"1987":11326,"ĠPuntos":11327,"Esa":11328,"Ġmarcas":11329,"ĠSuÃ¡rez":11330,"hara":11331,"ĠÃ³rbita":11332,"Ġinno":11333,"Ãºst":11334,"Ġamanecer":11335,"Ġhabido":11336,"Ġvende":11337,"Die":11338,"Rec":11339,"Ġtest":11340,"Ġdispuesta":11341,"Ġportada":11342,"ĠDur":11343,"ĠbuscÃ³":11344,"Ġdestacado":11345,"Ġ88":11346,"Ġmul":11347,"lÃ³n":11348,"Ġzo":11349,"erie":11350,"Ġlaboratorio":11351,"ĠOk":11352,"ĠBene":11353,"ĠProvincial":11354,"Ġcultivo":11355,"Ġsoftware":11356,"ĠmetÃ¡l":11357,"Ġenamorado":11358,"Ġdescenso":11359,"Her":11360,"Ġciencias":11361,"ĠvivÃŃan":11362,"ns":11363,"Ġpermitido":11364,"QU":11365,"ĠvestÃŃbulo":11366,"ĠSS":11367,"Quiero":11368,"Ġ96":11369,"Ġcuerdas":11370,"ĠmÃºsculos":11371,"Ġnecesitar":11372,"guer":11373,"Ġganando":11374,"ĠSenado":11375,"ĠaparecÃŃa":11376,"Ġdisputa":11377,"ĠCatedral":11378,"Solo":11379,"Ġrequiere":11380,"Ġaprendi":11381,"ĠdomÃ©st":11382,"ĠhipÃ³tesis":11383,"Ġligera":11384,"Ġcastigo":11385,"Ġerrores":11386,"Ġproviene":11387,"Ġdebes":11388,"ĠGod":11389,"Ġextiende":11390,"Ġpropietario":11391,"ĠSoc":11392,"Ġjurado":11393,"Ġpopularidad":11394,"parto":11395,"ĠIntrodu":11396,"ĠSad":11397,"ĠazÃºcar":11398,"ÅĤ":11399,"leÃ±os":11400,"Ġestablecimiento":11401,"Ã¡zquez":11402,"Luego":11403,"Ġbeneficios":11404,"epresidente":11405,"Ġdimin":11406,"deas":11407,"iba":11408,"ĠUsted":11409,"RC":11410,"Ġjaponesa":11411,"Ġpropuso":11412,"atorce":11413,"ĠGin":11414,"Ġlisto":11415,"Ġbarba":11416,"ĠArthur":11417,"Ġic":11418,"ĠJerusalÃ©n":11419,"ĠAlbum":11420,"ili":11421,"Ã©ndome":11422,"Ã³rica":11423,"ĠTimes":11424,"Ġconferencia":11425,"Ġacceder":11426,"Ġhech":11427,"Ġherramientas":11428,"ĠTaxonomÃŃa":11429,"Ġ1913":11430,"Ġpost":11431,"Ġlibras":11432,"Ã©sped":11433,"Ġsargento":11434,"Ġdesea":11435,"Ġalternativa":11436,"Ġunirse":11437,"ĠsÃ¡bado":11438,"zon":11439,"ĠpretendÃŃa":11440,"Ġmonarca":11441,"Ġenfrentarse":11442,"ĠNaciÃ³n":11443,"iese":11444,"tie":11445,"ants":11446,"Ġmuere":11447,"Ġmaneras":11448,"guardia":11449,"Ġllegue":11450,"Ġlecho":11451,"Ġcompletar":11452,"Ġtern":11453,"ĠcÃ³n":11454,"Ġcanta":11455,"ct":11456,"ĠNav":11457,"bajo":11458,"ĠCerro":11459,"Ġcomedor":11460,"Ġsingular":11461,"Ġespon":11462,"Ġfero":11463,"Ġconducir":11464,"ĠAntigua":11465,"cambio":11466,"shire":11467,"ĠpÃ¡nico":11468,"Ð»":11469,"Ġidio":11470,"ĠMariano":11471,"urÃŃa":11472,"pito":11473,"ĠDeci":11474,"Ġpermiten":11475,"Ġcuartos":11476,"Ġ99":11477,"Ġjuvenil":11478,"ĠJuniors":11479,"ĠMatt":11480,"Ġconstantemente":11481,"ĠdespertÃ³":11482,"Ġpartid":11483,"Ġtop":11484,"az":11485,"ĠafirmÃ³":11486,"now":11487,"Ġgriegos":11488,"arlotte":11489,"Ġdesvan":11490,"TULO":11491,"ĠJuana":11492,"zones":11493,"dalena":11494,"Ġcondenado":11495,"ĠDam":11496,"ensos":11497,"Ġorb":11498,"ĠencontrÃ©":11499,"Ġiglesias":11500,"ĠCÃ³":11501,"Ġth":11502,"Ġrara":11503,"ĠOscar":11504,"ĠArgentino":11505,"Ġprovincial":11506,"ternidad":11507,"ĠAmerica":11508,"Ġmix":11509,"Ã¡Ã±ez":11510,"ĠBut":11511,"Ġestablece":11512,"Ġexit":11513,"Ġdeclarado":11514,"ĠgÃ³":11515,"abria":11516,"Ġvul":11517,"ĠrompiÃ³":11518,"Ġflan":11519,"Ġmencionado":11520,"Ġreper":11521,"Ġalcanza":11522,"Ġquieras":11523,"ernador":11524,"Ġapreci":11525,"ceros":11526,"Ġcort":11527,"ĠIsland":11528,"Ġperfil":11529,"Ġdeportista":11530,"ĠPatrimonio":11531,"ĠDick":11532,"ĠRivera":11533,"tizar":11534,"Ġmoto":11535,"ĠmuÃ±eca":11536,"ĠPÃºb":11537,"gÃ¼edad":11538,"atrocin":11539,"Ġestreno":11540,"Ġadecuado":11541,"Ġdiferenci":11542,"Ġaprendido":11543,"Ġencuentros":11544,"Mira":11545,"reto":11546,"rededor":11547,"Ġtrozo":11548,"Ġit":11549,"ĠWolf":11550,"oo":11551,"ĠCali":11552,"ĠJohnny":11553,"Ġgafas":11554,"atre":11555,"imp":11556,"dÃŃb":11557,"Puede":11558,"anÃ¡":11559,"ĠHonda":11560,"ĠRepres":11561,"dÃ©":11562,"Ġ',":11563,"ĠÂ":11564,"Ġazo":11565,"Ġseca":11566,"Ġbis":11567,"Ġcima":11568,"Ġentraba":11569,"ĠSamuel":11570,"ĠTanto":11571,"Ġbail":11572,"ĠabrÃŃa":11573,"ĠQuito":11574,"ĠsesiÃ³n":11575,"Ġprotagonizada":11576,"\":":11577,"riosa":11578,"ĠJard":11579,"ĠfusiÃ³n":11580,"Ġliberal":11581,"Ġsubmar":11582,"Ġdestacados":11583,"imal":11584,"Ġtecl":11585,"ĠTampoco":11586,"Ġquinta":11587,"ĠcreyÃ³":11588,"jaron":11589,"ĠPueblo":11590,"usura":11591,"ĠPuente":11592,"Ġende":11593,"Ġrell":11594,"Ġhabiendo":11595,"Ġmagnitud":11596,"Ġcircular":11597,"ĠCristÃ³bal":11598,"sor":11599,"ĠmÃ¡rmol":11600,"ĠFilipinas":11601,"Ġmarcharse":11602,"Ġagreg":11603,"Ġtoca":11604,"Ġatribuy":11605,"urgo":11606,"Ġpostura":11607,"ĠcrÃ©dito":11608,"1988":11609,"Pens":11610,"Ġdesarrolla":11611,"Ġocultar":11612,"lot":11613,"Ġ92":11614,"Ġtortu":11615,"Ġangustia":11616,"Ġ78":11617,"Ġcontestar":11618,"ĠObra":11619,"ĠLanz":11620,"Ġ71":11621,"terno":11622,"core":11623,"ĠmandÃŃb":11624,"Toda":11625,"gend":11626,"Hasta":11627,"cusiÃ³n":11628,"VÃ©ase":11629,"Ġcomisario":11630,"Ġ82":11631,"Ã¡sico":11632,"uge":11633,"Mor":11634,"Ġbarrios":11635,"ricaciÃ³n":11636,"Ġparale":11637,"Ġtercio":11638,"Ġdemocracia":11639,"ĠVillar":11640,"Ġlatino":11641,"Ġeng":11642,"indi":11643,"ĠPerio":11644,"ĠTokio":11645,"ĠPrimero":11646,"ribles":11647,"ĠNapole":11648,"andy":11649,"Ġ93":11650,"ĠMiami":11651,"ĠApo":11652,"Ġartic":11653,"ĠYama":11654,"Ġnegar":11655,"ĠColÃ³n":11656,"Ġinspector":11657,"ĠTeo":11658,"Ġpesado":11659,"ĠFilmografÃŃa":11660,"ĠEvan":11661,"ĠSho":11662,"Ġmuel":11663,"ĠGuzmÃ¡n":11664,"ĠderrotÃ³":11665,"Ġcombustible":11666,"Ġintrodujo":11667,"Ġdifun":11668,"Ġmuestras":11669,"],":11670,"ĠpÃ¡lido":11671,"ĠCeci":11672,"quisiciÃ³n":11673,"Ġaparecido":11674,"ĠprogramaciÃ³n":11675,"ĠnombrÃ³":11676,"Madrid":11677,"DO":11678,"Ġpierde":11679,"ĠDiscografÃŃa":11680,"ĠFishes":11681,"ĠSC":11682,"ĠaÃ±adir":11683,"veda":11684,"UR":11685,"Ġpluma":11686,"Ġconsiderable":11687,"ĠSher":11688,"Ġrepresentan":11689,"PG":11690,"1986":11691,"Ġsuroeste":11692,"bili":11693,"ĠApertura":11694,"Ġfresco":11695,"Ġcusto":11696,"ĠLibertad":11697,"Ġalfomb":11698,"Ġsobrevivir":11699,"Ġdesconcer":11700,"Ġbasa":11701,"ĠpermanecÃŃa":11702,"ĠtÃºnel":11703,"ĠsillÃ³n":11704,"ĠcatalÃ¡n":11705,"New":11706,"Ġ--":11707,"Ġfrases":11708,"ĠMotor":11709,"ning":11710,"plica":11711,"ĠcontenÃŃa":11712,"Ġ73":11713,"Ġrepetir":11714,"Star":11715,"ĠLoc":11716,"Ġdecidieron":11717,"Ġtrasera":11718,"Ġiguales":11719,"Ġlanzar":11720,"Ġcerro":11721,"ĠcomisiÃ³n":11722,"ĠCON":11723,"tier":11724,"Ġeva":11725,"Ġquem":11726,"ben":11727,"ĠWhe":11728,"ĠvolvÃŃ":11729,"ĠUnidad":11730,"Ġvoto":11731,"Ġcansado":11732,"omosex":11733,"ĠNich":11734,"Ġalcanzado":11735,"Ġaveriguar":11736,"Ġsuceder":11737,"ueras":11738,"ĠRyan":11739,"ĠJeff":11740,"Ġrug":11741,"ĠMagn":11742,"Ġlento":11743,"Ã±oz":11744,"ĠquÃŃmica":11745,"Ġvecino":11746,"Ġdesnudo":11747,"Ġsobrino":11748,"ĠdarÃŃa":11749,"Ġcero":11750,"Ġinc":11751,"Ġsemi":11752,"ĠliberaciÃ³n":11753,"tificado":11754,"ĠCampeonatos":11755,"Ġcanad":11756,"Ġpatrimonio":11757,"legios":11758,"Ãºo":11759,"sea":11760,"ize":11761,"aceae":11762,"ĠPoblaciÃ³n":11763,"Ġaceptado":11764,"jarse":11765,"Ġfila":11766,"Ġdevolver":11767,"ĠBernardo":11768,"acruz":11769,"work":11770,"Î½":11771,"Ġpil":11772,"idamente":11773,"Ã³mico":11774,"Ġcaba":11775,"Ġvisitas":11776,"Ġfuncionarios":11777,"Ã©ticas":11778,"1985":11779,"Ġconsideran":11780,"Ġcorredor":11781,"ĠBilbao":11782,"ĠPÃºblica":11783,"Ġrusos":11784,"Ġveter":11785,"Ġpaciencia":11786,"Ġfuertemente":11787,"oph":11788,"Ġlujo":11789,"ĠRoss":11790,"ĠCerv":11791,"Ġmillas":11792,"clar":11793,"Ġlunes":11794,"ĠAnderson":11795,"tran":11796,"izos":11797,"ĠfÃ³s":11798,"Ġactuaciones":11799,"ĠLibro":11800,"Ġcie":11801,"ĠmediodÃŃa":11802,"Ġ#\"":11803,"Ġdeportivo":11804,"unas":11805,"Ġshow":11806,"ĠStephen":11807,"ĠeconÃ³micas":11808,"Ġobservando":11809,"Ġderrotado":11810,"ĠEllos":11811,"Ġhilo":11812,"cano":11813,"Ġprovocar":11814,"diÃ©ndose":11815,"ĠdesempeÃ±Ã³":11816,"Ġhered":11817,"Ġescultura":11818,"worth":11819,"ĠobservaciÃ³n":11820,"trices":11821,"Ġ1916":11822,"Ġorillas":11823,"Ġpaquete":11824,"Ġaparentemente":11825,"poles":11826,"itamente":11827,"ĠFamilia":11828,"ĠFalle":11829,"ĠComunista":11830,"Ġpotencial":11831,"Ġinterpretar":11832,"ĠBaja":11833,"ĠPolÃŃtica":11834,"ĠAndrea":11835,"Ġofen":11836,"ĠdÃ¡ndole":11837,"Ġang":11838,"ĠEstadÃŃsticas":11839,"Ġreuniones":11840,"Ġnorma":11841,"ĠState":11842,"Ġterritorial":11843,"ĠcÃº":11844,"ĠsÃŃnt":11845,"Ġnube":11846,"Ġorganismo":11847,"ĠLucÃŃa":11848,"ĠEmma":11849,"Ġdebate":11850,"Ġego":11851,"TenÃŃa":11852,"real":11853,"Ġjuntas":11854,"Ġaterri":11855,"ĠSegundo":11856,"ĠAugusto":11857,"Emp":11858,"Tras":11859,"Ġparticipa":11860,"Ġtrajo":11861,"ĠLyn":11862,"boro":11863,"Ġfib":11864,"Ġampliamente":11865,"ĠLabor":11866,"Ġapete":11867,"imnasia":11868,"ĠartillerÃŃa":11869,"Ġseria":11870,"Ġdeuda":11871,"Ġdescansar":11872,"Ġmiraron":11873,"Ġpreocupes":11874,"Ġsupre":11875,"Ġespiritual":11876,"ĠeconÃ³micos":11877,"ĠRas":11878,"EE":11879,"ĠHerrera":11880,"Ġpromesa":11881,"Buenos":11882,"ĠMayo":11883,"ĠemitiÃ³":11884,"Ġful":11885,"Ġproducen":11886,"bÃºs":11887,"Ġapas":11888,"Ph":11889,"Pol":11890,"Ġelevado":11891,"ĠBernard":11892,"ĠGarden":11893,"Ġasombro":11894,"Ġcometido":11895,"Ġllenos":11896,"ganda":11897,"ĠImper":11898,"ĠBun":11899,"Ġsaltar":11900,"Ġolas":11901,"Ġargumento":11902,"Ġgab":11903,"ĠForm":11904,"eciendo":11905,"Ġfinalizar":11906,"ĠLuisa":11907,"Ġintensa":11908,"dillera":11909,"Ġpasan":11910,"ĠcomentÃ³":11911,"ĠGonzalo":11912,"ĠescÃ¡ndal":11913,"ĠAM":11914,"osh":11915,"Ġestimada":11916,"ĠBlue":11917,"Ġprolon":11918,"Ġprede":11919,"Ġgloria":11920,"itter":11921,"parte":11922,"timologÃŃa":11923,"ĠGuy":11924,"Ġcuesta":11925,"Ġtemo":11926,"ĠAndrÃ©":11927,"Ġgesti":11928,"ĠHistory":11929,"ĠrealizaciÃ³n":11930,"Ġamaba":11931,"Ġvolviendo":11932,"ĠAndy":11933,"ĠConfe":11934,"ĠCarre":11935,"Ġche":11936,"guila":11937,"Ġdescrip":11938,"nÃ³":11939,"Ġnaciones":11940,"Del":11941,"Ġrepresentar":11942,"ĠColonia":11943,"onesa":11944,"ĠadvirtiÃ³":11945,"Ġtorres":11946,"Be":11947,"ĠErnesto":11948,"ĠHom":11949,"Ġ81":11950,"GB":11951,"Sol":11952,"ulares":11953,"ĠAur":11954,"Ġsaliendo":11955,"Ġnombra":11956,"ĠNÂº":11957,"DE":11958,"imientos":11959,"ĠHollywood":11960,"Ġatractivo":11961,"Ġcejas":11962,"Ġlevantarse":11963,"Ġeliminar":11964,"ĠincluyÃ³":11965,"Ġreunir":11966,"Ġsentidos":11967,"ĠBoys":11968,"ĠConstru":11969,"'\".":11970,"ĠbaÃ±":11971,"Ġregla":11972,"ĠOpera":11973,"ĠDisney":11974,"eland":11975,"Ġfunciona":11976,"ĠsucesiÃ³n":11977,"bec":11978,"tamos":11979,"chÃ³n":11980,"Ã©rpre":11981,"ĠValenci":11982,"ĠHong":11983,"Ġmadrugada":11984,"Ġprol":11985,"centa":11986,"ĠLegislatura":11987,"ancio":11988,"ĠInterior":11989,"usk":11990,"Ġtraspas":11991,"ĠCambridge":11992,"ĠSom":11993,"ĠOlimp":11994,"ĠdemocrÃ¡":11995,"ĠSantander":11996,"Ġdedu":11997,"esis":11998,"ĠRojas":11999,"ĠInvestigaciÃ³n":12000,"Ġdijeron":12001,"Ġpistas":12002,"ĠWindows":12003,"Ġasistir":12004,"Ġauxil":12005,"Ġpatria":12006,"Ġvacil":12007,"Ġsuperar":12008,"ach":12009,"SA":12010,"onto":12011,"Ġdas":12012,"izca":12013,"ĠCharlie":12014,"Ġcatorce":12015,"lines":12016,"ĠEL":12017,"ĠUb":12018,"vaciones":12019,"ĠGiovan":12020,"ĠCartag":12021,"ulia":12022,"Tiene":12023,"continuÃ³":12024,"ĠsaltÃ³":12025,"Ġobreros":12026,"ĠoÃŃ":12027,"ĠVia":12028,"herine":12029,"Ġapresur":12030,"ĠMuÃ±oz":12031,"Ġreprim":12032,"ĠMorales":12033,"ĠEpisodio":12034,"ĠLl":12035,"tate":12036,"ecas":12037,"ĠFla":12038,"Ġexperiencias":12039,"Ġretirarse":12040,"ologÃŃas":12041,"ĠpÃ¡jaros":12042,"Ġpreguntaba":12043,"Ġsorprendente":12044,"Ġrelatos":12045,"Ġsencilla":12046,"Ġseparado":12047,"ĠcÃ¡maras":12048,"Ġmenciona":12049,"ĠvegetaciÃ³n":12050,"ĠLive":12051,"Ġescuchaba":12052,"Ġricos":12053,"Ġocupaba":12054,"Ġvence":12055,"1983":12056,"lara":12057,"Ġcolonial":12058,"ĠconsiderÃ³":12059,"Ġinconsciente":12060,"Ġcamin":12061,"Ġcristian":12062,"Ġparejas":12063,"Siempre":12064,"Ġimpuestos":12065,"ĠAng":12066,"Ġfantasma":12067,"Ġestal":12068,"chill":12069,"Ġcierre":12070,"iers":12071,"Ġtrasero":12072,"Ġpechos":12073,"enses":12074,"lette":12075,"ĠAmar":12076,"ominada":12077,"aunque":12078,"Ġmensajes":12079,"ĠDeportiva":12080,"Ġamigas":12081,"Ġseas":12082,"cusa":12083,"Ġtestigo":12084,"Ġusan":12085,"ĠConn":12086,"tainment":12087,"ĠmarrÃ³n":12088,"rell":12089,"osotras":12090,"Ġcajas":12091,"Ġverme":12092,"ĠDavis":12093,"ĠActor":12094,"aÃ±os":12095,"ĠLara":12096,"Ġsupuso":12097,"Ġame":12098,"Ġaplicaciones":12099,"ester":12100,"ĠJam":12101,"ĠFÃ©lix":12102,"dismo":12103,"inois":12104,"ĠZamora":12105,"Ġcasada":12106,"Ġsacerdotes":12107,"Ġcuentan":12108,"llÃ³":12109,"Ã§a":12110,"Ġderrumb":12111,"MarÃŃa":12112,"Ġfemeninas":12113,"Ġteatral":12114,"ĠCarlo":12115,"org":12116,"ĠJal":12117,"Ġcabellos":12118,"ĠHard":12119,"ĠvolÃºmenes":12120,"ĠLewis":12121,"Ġparpa":12122,"Ġdial":12123,"Ġbl":12124,"Usted":12125,"Ġgobiernos":12126,"cidentales":12127,"etti":12128,"Ġinocente":12129,"ĠgolpeÃ³":12130,"terios":12131,"ĠtÃ¡c":12132,"ĠBarb":12133,"Ġ1911":12134,"Ese":12135,"operaciÃ³n":12136,"ĠPodrÃŃa":12137,"Ġrecientes":12138,"Ø§":12139,"ĠDEL":12140,"ĠcompitiÃ³":12141,"Ġdiosa":12142,"ĠSpr":12143,"Ġdanza":12144,"Ġobtiene":12145,"Ġdesgar":12146,"Ġllaves":12147,"oman":12148,"ĠseÃ±alando":12149,"ĠdirÃ©":12150,"ĠParticipÃ³":12151,"ĠLie":12152,"Ġcampesinos":12153,"Ġconocen":12154,"ĠRonda":12155,"ĠPascu":12156,"fol":12157,"ĠintroducciÃ³n":12158,"Ġbici":12159,"Ã¡culo":12160,"ĠNorman":12161,"ĠBruno":12162,"Ġ1915":12163,"voz":12164,"Ġcontinuaba":12165,"Ġcorreo":12166,"Ġdemostrado":12167,"Mis":12168,"bell":12169,"ĠSporting":12170,"ĠjudÃŃo":12171,"Ġguerreros":12172,"ĠComenzÃ³":12173,"Ġantic":12174,"Ġcaminando":12175,"ÃŃsica":12176,"ĠemisiÃ³n":12177,"ĠMiranda":12178,"ÃŃtimo":12179,"Ġtomaron":12180,"Ġpreviamente":12181,"ĠBib":12182,"eau":12183,"ĠÃģlbum":12184,"ĠEres":12185,"mÃ³n":12186,"Ros":12187,"Ġeno":12188,"Ġbalance":12189,"Ġgalard":12190,"viÄĩ":12191,"Ġconversaciones":12192,"Ġdigas":12193,"Ãºmero":12194,"etta":12195,"drÃ©":12196,"ĠÃ¡cido":12197,"ĠEstatal":12198,"ĠprofesiÃ³n":12199,"estre":12200,"ÃŃferos":12201,"ĠBruselas":12202,"ĠquedÃ©":12203,"ĠFase":12204,"quen":12205,"Ġespant":12206,"Ġflam":12207,"Ġrespuestas":12208,"ĠArro":12209,"Ġsedu":12210,"delo":12211,"Ġterremo":12212,"Ġesperado":12213,"ĠFlorencia":12214,"ĠSingles":12215,"Ġformaba":12216,"Ġpra":12217,"Ġcalific":12218,"Ġeclesi":12219,"Ġcenten":12220,"ĠFuerzas":12221,"dula":12222,"Ãºnich":12223,"Ġdiablo":12224,"ĠEncy":12225,"fan":12226,"unes":12227,"ĠMedicina":12228,"icipio":12229,"Ġcotidi":12230,"Ġcostas":12231,"Ġburgu":12232,"acen":12233,"ĠValent":12234,"ĠKong":12235,"ĠfÃ³rmula":12236,"Ġmurm":12237,"Ġimpar":12238,"Ġnotar":12239,"vey":12240,"Ġexpor":12241,"ĠlingÃ¼":12242,"Ġrelacionadas":12243,"ĪĴ":12244,"tuoso":12245,"ĠExtre":12246,"Ġseno":12247,"ĠLlevaba":12248,"Ġrendimiento":12249,"Ġmovil":12250,"Ġcorrientes":12251,"Ġmantenimiento":12252,"Ġavanzar":12253,"hon":12254,"Ġlaterales":12255,"ĠMarcel":12256,"Ġterrestre":12257,"Ġexistir":12258,"Ġfascin":12259,"Ġalejarse":12260,"Ġrealizaron":12261,"bour":12262,"cimo":12263,"Ġcoord":12264,"Ġcompens":12265,"Ġplen":12266,"Ġsecuestr":12267,"Ġmonstruo":12268,"Ġrebeldes":12269,"Ġtera":12270,"Ġhuellas":12271,"Ġlab":12272,"Puedo":12273,"Ġtrece":12274,"Ġreducido":12275,"Ġtrenes":12276,"ĠMÃ¡r":12277,"Ġllegaban":12278,"Ġgras":12279,"Ġcalcul":12280,"Ġtranspar":12281,"Ġprevisto":12282,"py":12283,"Ġesencial":12284,"repitiÃ³":12285,"Ġdepart":12286,"lova":12287,"ĠFinlandia":12288,"Ġacento":12289,"ÃŃamos":12290,"Ġintentos":12291,"ĠMuseum":12292,"Ġisrael":12293,"ĠtransformaciÃ³n":12294,"Ġdisparo":12295,"Ġheredero":12296,"Ġdiputados":12297,"Ġmueca":12298,"bidos":12299,"Ġtoler":12300,"Ġvolar":12301,"ĠClo":12302,"Ġdichos":12303,"Ãºtiles":12304,"ĠSecretario":12305,"Ġintenciones":12306,"ĠsonÃ³":12307,"Ġobtenido":12308,"ĠKate":12309,"Ġurban":12310,"Ġole":12311,"Ġpreciosa":12312,"onos":12313,"ĠHerman":12314,"ĠorÃŃgenes":12315,"At":12316,"ĠArn":12317,"ĠejÃ©rcitos":12318,"liga":12319,"inu":12320,"Ġcall":12321,"Ġmodernos":12322,"ĠNÃ¡poles":12323,"ecos":12324,"jano":12325,"ĠHijo":12326,"Ġincidente":12327,"Ġabar":12328,"wski":12329,"My":12330,"ĠCri":12331,"Ġmecanismo":12332,"ĠPG":12333,"jones":12334,"ĠVoz":12335,"ĠespaÃ±olas":12336,"Ġnuclear":12337,"ĠLÃ©":12338,"Ġvideojuego":12339,"cab":12340,"sky":12341,"ĠBrad":12342,"Ġ79":12343,"Ġvivienda":12344,"ĠMik":12345,"ĠFilm":12346,"Ġenerg":12347,"lash":12348,"ĠRel":12349,"ĠTem":12350,"Ġvenga":12351,"esos":12352,"ĠplÃ¡stico":12353,"Ġef":12354,"trÃ³leo":12355,"ĠSofÃŃa":12356,"nado":12357,"ĠHabana":12358,"Ġcigarrillo":12359,"Ġpecu":12360,"Ġtasa":12361,"Ġrol":12362,"ĠentendÃŃa":12363,"Ã±ando":12364,"Ġmaestros":12365,"ĠAL":12366,"Ġbeneficio":12367,"ĠSupongo":12368,"Ġvisitantes":12369,"ĠArquitec":12370,"ulsiÃ³n":12371,"Ġgole":12372,"tah":12373,"ĠGuerrero":12374,"Ġintercambio":12375,"Ġadicional":12376,"endario":12377,"ĠGot":12378,"ĠMagdalena":12379,"ĠabrazÃ³":12380,"Ġpisos":12381,"Ġencom":12382,"inario":12383,"Ġlograron":12384,"ĠservÃŃa":12385,"Î¹":12386,"Ġpsi":12387,"ĠconfirmÃ³":12388,"Ġjurisdi":12389,"ĠPts":12390,"Ġhomosex":12391,"Ġflex":12392,"Ġdisciplina":12393,"Ġejecutivo":12394,"ĠMcC":12395,"Ġbruscamente":12396,"ificaciones":12397,"Ġdescribir":12398,"oyle":12399,"ĠalejÃ³":12400,"Ã¡ceas":12401,"ĠKennedy":12402,"Ġcerteza":12403,"Ġusuario":12404,"Ġmaravilloso":12405,"war":12406,"issa":12407,"Ste":12408,"Ġbenefici":12409,"Ġalz":12410,"ĠSalÃ³n":12411,"Ġsucesor":12412,"Ġindependientes":12413,"Ġalm":12414,"fri":12415,"dimientos":12416,"cierto":12417,"Ġconflictos":12418,"ĠdecÃŃan":12419,"ĠOut":12420,"gru":12421,"ĠBad":12422,"jestad":12423,"Ġdisponibles":12424,"Ġmediano":12425,"amental":12426,"Ġaca":12427,"lack":12428,"Ġbarbilla":12429,"Ġdecirme":12430,"inaje":12431,"Ġentendido":12432,"ĠesperÃ³":12433,"ĠObservatorio":12434,"sell":12435,"ĠrebeliÃ³n":12436,"Ġeti":12437,"ĠingresÃ³":12438,"Ġbande":12439,"ifer":12440,"ficiencia":12441,"Ġmort":12442,"ĠHotel":12443,"Ġregresa":12444,"Ġtarjeta":12445,"Ġpala":12446,"ĠON":12447,"Ġgustado":12448,"ÃŃficamente":12449,"Ġperegr":12450,"Ġmalos":12451,"Ã³nima":12452,"taro":12453,"Ġprofesores":12454,"ĠÃ¡ngulo":12455,"Ġmuchachos":12456,"ĠcaballerÃŃa":12457,"Ġalturas":12458,"ĠKent":12459,"idel":12460,"Ed":12461,"Ġdescom":12462,"ĠLab":12463,"ĠKevin":12464,"ĠestratÃ©":12465,"inalmente":12466,"Ġbasta":12467,"phie":12468,"Ġbuques":12469,"ont":12470,"Ġrean":12471,"1984":12472,"ĠRevista":12473,"Ġmuebles":12474,"Ġvaci":12475,"Ġmata":12476,"ĠKam":12477,"ĠNapoleÃ³n":12478,"Ġenlace":12479,"Ġdocena":12480,"ĠilusiÃ³n":12481,"ĠtardÃ³":12482,"rison":12483,"ĠMuchas":12484,"ĠSpe":12485,"ĠHacia":12486,"Ġvano":12487,"ĠfabricaciÃ³n":12488,"ĠMargarita":12489,"ĠChil":12490,"forme":12491,"els":12492,"ĠJimmy":12493,"ĠMedina":12494,"ĠprÃ©st":12495,"ĠGregorio":12496,"ĠConstantino":12497,"Ġretirado":12498,"ieros":12499,"CH":12500,"tense":12501,"Ġhil":12502,"Ã©ndola":12503,"ĠEast":12504,"Ġmentira":12505,"onna":12506,"Ġportal":12507,"Ġposeen":12508,"Ġitalianos":12509,"ĠTener":12510,"ulla":12511,"Mas":12512,"ĠTratado":12513,"Ġuniversidades":12514,"ĠprecisiÃ³n":12515,"Ġestro":12516,"Ġinterno":12517,"Copa":12518,"Ġrealizan":12519,"uenca":12520,"ĠLisboa":12521,"ĠComercio":12522,"gulares":12523,"Ġdevor":12524,"Ġgrueso":12525,"Partido":12526,"quera":12527,"Ġjuzgar":12528,"Ġprofesora":12529,"Ġvemos":12530,"Ġalmoh":12531,"Ġorejas":12532,"ĠÃºnicos":12533,"Ġfaltaba":12534,"ĠMÃºnich":12535,"ĠpodrÃŃamos":12536,"Ġsuficientes":12537,"Ġcorreg":12538,"ĠVietnam":12539,"aremos":12540,"gam":12541,"Ġlevanta":12542,"Ġmalas":12543,"Ġtabl":12544,"ĠconstituciÃ³n":12545,"Ġasistencia":12546,"paÃ±as":12547,"Ġcompor":12548,"ĠPilar":12549,"explicÃ³":12550,"ĠsitÃºa":12551,"Pres":12552,"Ġflujo":12553,"Ġconfiar":12554,"lito":12555,"Ġempresario":12556,"dona":12557,"Ġsalas":12558,"udÃ³":12559,"tigio":12560,"ĠEjecu":12561,"Ã©isbol":12562,"1982":12563,"ĠadquiriÃ³":12564,"Ġcruj":12565,"Ġdrogas":12566,"Ġcomenzado":12567,"ĠNingun":12568,"Ġparticipado":12569,"Ġarcos":12570,"Ġpenal":12571,"ĠCaballero":12572,"lice":12573,"ĠEstudiÃ³":12574,"daba":12575,"Ġsentados":12576,"Ġnobleza":12577,"ĠJuventud":12578,"Ġjudicial":12579,"ĠdejÃ©":12580,"Ġrica":12581,"Ġroj":12582,"ĠcatÃ³licos":12583,"ĠperdÃ³n":12584,"ĠClaro":12585,"Ġubica":12586,"Ġexilio":12587,"ĠvÃŃn":12588,"Ġoficio":12589,"Ġotom":12590,"Ge":12591,"ĠAlice":12592,"Ġmari":12593,"ali":12594,"Ġidiomas":12595,"Ġadicionales":12596,"uera":12597,"nis":12598,"ĠGame":12599,"Ġniebla":12600,"Ġcopas":12601,"icÃ³p":12602,"abellÃ³n":12603,"Ġabrazo":12604,"Ġhec":12605,"Ġ86":12606,"ione":12607,"Ġesperaban":12608,"Ġequivalente":12609,"alÃ³":12610,"Ġpersonalmente":12611,"Ġpudiese":12612,"ĠAssociation":12613,"ĠSky":12614,"ĠpolicÃŃas":12615,"ĠJason":12616,"ĠAli":12617,"ĠConce":12618,"Ġestuviese":12619,"Ġnace":12620,"Ġsollo":12621,"ĠocurrÃŃa":12622,"ensible":12623,"ugi":12624,"Ġinac":12625,"ĠCabo":12626,"Ġhagas":12627,"Ġincluir":12628,"Ġasimismo":12629,"tÃŃan":12630,"fort":12631,"gico":12632,"Ġdesnuda":12633,"ruecos":12634,"Ġcarn":12635,"ĠUnos":12636,"Ġmostrando":12637,"Ġ87":12638,"Ġrojas":12639,"Ġarreglar":12640,"ĠMarcelo":12641,"omp":12642,"Ġabiertas":12643,"sela":12644,"familia":12645,"ĠMars":12646,"acia":12647,"Ġ1908":12648,"ĠChan":12649,"Ġrecorrer":12650,"ĠRoad":12651,"Ġgentes":12652,"Ġmasas":12653,"Ġfilos":12654,"Ġproduc":12655,"aragua":12656,"ĠinversiÃ³n":12657,"portivo":12658,"ejo":12659,"Ġvideojuegos":12660,"Ġtitulada":12661,"Ġ?":12662,"ĠBase":12663,"ĠFlo":12664,"ĠCheca":12665,"Ġvienen":12666,"ueta":12667,"Ġexperiment":12668,"Ġaparecieron":12669,"Ġbajos":12670,"Ġselva":12671,"Ġarchivo":12672,"Ġropas":12673,"Ġvital":12674,"pool":12675,"Ġdescritos":12676,"uerzo":12677,"Ġarmon":12678,"tolÃ³g":12679,"ĠEdiciÃ³n":12680,"ced":12681,"ĠContin":12682,"Ġcopia":12683,"Ġinmo":12684,"On":12685,"Ġhondo":12686,"Ġcinemato":12687,"Ġhueco":12688,"ĠInici":12689,"ĠhÃºn":12690,"Ġrojos":12691,"ĠMediterrÃ¡neo":12692,"MI":12693,"Ġcrecer":12694,"ĠOpen":12695,"viedo":12696,"Santa":12697,"Ġtranquilidad":12698,"Ġdenomina":12699,"ĠfÃ©r":12700,"lista":12701,"Ġbara":12702,"Ġhueso":12703,"Ġpist":12704,"Ġversos":12705,"yac":12706,"Ġherencia":12707,"ĠPun":12708,"ĠDemocrÃ¡tica":12709,"ulaciÃ³n":12710,"ĠHanna":12711,"Ġorganizar":12712,"Ġprepara":12713,"ĠGh":12714,"Ġdata":12715,"ĠdisponÃŃa":12716,"Ġsimples":12717,"ĠChap":12718,"ĠUs":12719,"Ġcuartel":12720,"ĠIndividu":12721,"ĠisleÃ±os":12722,"Ġcaracteriza":12723,"Ġpasaban":12724,"ĠArch":12725,"Ġsocio":12726,"querÃŃa":12727,"ĠMonter":12728,"uber":12729,"Ġbrin":12730,"ĠUniversal":12731,"andal":12732,"Ġayudante":12733,"Ġsexuales":12734,"Ġdispuestos":12735,"Ġpregunto":12736,"Ġparo":12737,"Ġfragmentos":12738,"Ġpatrocin":12739,"Ġtribunal":12740,"merÃŃa":12741,"Ġabstra":12742,"Ġtemprana":12743,"Ġaniversario":12744,"ĠDy":12745,"Billboard":12746,"iger":12747,"Ġprocedente":12748,"Ġdesvi":12749,"Ġrelie":12750,"bes":12751,"Ġrayo":12752,"Ġensayo":12753,"ĠColumbia":12754,"ĠacariciÃ³":12755,"Ġmantenido":12756,"Ġpren":12757,"ĠmatÃ³":12758,"ĠVargas":12759,"ilvania":12760,"Ġarmario":12761,"Ġteleno":12762,"ĠDio":12763,"ĠPatrick":12764,"Ġformaban":12765,"Ġeco":12766,"Ġhip":12767,"lab":12768,"Ġestir":12769,"usas":12770,"ĠÃīste":12771,"Ġsincer":12772,"Ġ91":12773,"VI":12774,"-,":12775,"Mat":12776,"ÃŃficos":12777,"Ġvigilancia":12778,"Ġrib":12779,"Ġasistente":12780,"risto":12781,"Ġiniciar":12782,"Ġdistritos":12783,"dellÃŃn":12784,"Ġcabina":12785,"ĠBenj":12786,"Ġbrutal":12787,"rita":12788,"Ġsupiera":12789,"ĠreÃºn":12790,"ĠArgu":12791,"ĠdifusiÃ³n":12792,"Ġdenunci":12793,"Ġpasada":12794,"Ġsencillos":12795,"Ġcreen":12796,"Ġsecuencia":12797,"estru":12798,"Ġvientos":12799,"Ġgirar":12800,"ĠPE":12801,"bach":12802,"Ġperca":12803,"Ġgla":12804,"ĠBlas":12805,"ĠrecuperaciÃ³n":12806,"Ġpalma":12807,"aga":12808,"Ġlobo":12809,"idalgo":12810,"Ġ1905":12811,"Tan":12812,"Super":12813,"Ġdiscutir":12814,"ĠEN":12815,"Ġapoyado":12816,"Ġlegis":12817,"Ġplas":12818,"trato":12819,"Ġadmitir":12820,"ĠExteriores":12821,"sic":12822,"ĠTenemos":12823,"Dist":12824,"ĠRugby":12825,"irre":12826,"Ġdistribuy":12827,"ĠactuÃ³":12828,"CuÃ¡nto":12829,"ĠindicÃ³":12830,"ĠDouglas":12831,"ĠcompaÃ±era":12832,"ĠnÂº":12833,"Ġgastos":12834,"ĠEntertainment":12835,"aldo":12836,"Ġimb":12837,"Ġconsiguiente":12838,"ĠBy":12839,"1980":12840,"ĠpersecuciÃ³n":12841,"Ġutilizados":12842,"Ġcircuito":12843,"iertamente":12844,"Ġmisiones":12845,"ĠpreparaciÃ³n":12846,"ĠCien":12847,"ĠteorÃŃas":12848,"Ġinvestigadores":12849,"Ġ83":12850,"Ġseguros":12851,"tecas":12852,"ĠVeracruz":12853,"Ġline":12854,"ĠexplotaciÃ³n":12855,"ĠdifÃŃciles":12856,"tish":12857,"Ġnotables":12858,"cales":12859,"tarla":12860,"For":12861,"Ġfrecuentemente":12862,"Ġseguidores":12863,"ĠvÃ©r":12864,"Ġ'.":12865,"Ġplaca":12866,"Ġmesas":12867,"Ġcontinua":12868,"Ġadolescente":12869,"Ġcolombiano":12870,"Ġbando":12871,"Ġsacado":12872,"ĠfinalizÃ³":12873,"bon":12874,"Ġcerrados":12875,"Ġrem":12876,"Ġdesastre":12877,"eÃ±o":12878,"ĠFÃ³rmula":12879,"Ġasesin":12880,"ĠmandÃ³":12881,"ĠRib":12882,"Ġbonita":12883,"XX":12884,"gonz":12885,"Ġsendero":12886,"alizadas":12887,"ĠEstudiantes":12888,"tigo":12889,"ĠSas":12890,"Ġcriaturas":12891,"Ġimpi":12892,"Ġcorrecto":12893,"ĠdiscÃŃ":12894,"atÃŃa":12895,"ĠasumiÃ³":12896,"Ġpertur":12897,"rico":12898,"dale":12899,"Ġobteniendo":12900,"ĠrestauraciÃ³n":12901,"PN":12902,"ĠAnne":12903,"Ġerig":12904,"bot":12905,"Ġree":12906,"Ġpesada":12907,"WE":12908,"ĠPalma":12909,"imenea":12910,"Ġsierra":12911,"ciosa":12912,"rit":12913,"ĠcÃ¡pita":12914,"Ġgratu":12915,"ĠtransiciÃ³n":12916,"mont":12917,"Ġchas":12918,"Ġputa":12919,"Ġprocedentes":12920,"Ġhaz":12921,"ĠADN":12922,"Ġdebil":12923,"ĠRef":12924,"Ġsua":12925,"ĠRoja":12926,"illy":12927,"Ġhacerme":12928,"Ġpsico":12929,"ete":12930,"ĠCartagena":12931,"Ġ94":12932,"Ġcurioso":12933,"rec":12934,"ĠHizo":12935,"Ġdisparos":12936,"Ġradical":12937,"Ġsigno":12938,"Ġmelan":12939,"ĠStadium":12940,"bÃ³n":12941,"Ġincluidos":12942,"BI":12943,"Ġtomaba":12944,"enen":12945,"ĠCora":12946,"critos":12947,"ax":12948,"pit":12949,"ĠAlba":12950,"ultado":12951,"ĠAsunciÃ³n":12952,"cencia":12953,"Ġturno":12954,"Ġextremos":12955,"ĠreputaciÃ³n":12956,"Ġhorizon":12957,"quiÃ©n":12958,"quiriÃ³":12959,"Ġvendido":12960,"Ġservido":12961,"Ġguitarrista":12962,"ĠcirculaciÃ³n":12963,"colo":12964,"Ġdisper":12965,"Ġvidrio":12966,"Ġabord":12967,"Ġjaponeses":12968,"ĠPremier":12969,"fologÃŃa":12970,"gers":12971,"Ġelenco":12972,"ĠCrim":12973,"ĠCharlotte":12974,"Ġmeridi":12975,"Ġpuse":12976,"ĠcubrÃŃa":12977,"ĠPese":12978,"Ä±":12979,"Ġcantidades":12980,"ĠasegurÃ³":12981,"Ã²":12982,"ĠAndes":12983,"ĠconsistÃŃa":12984,"âĢ¦!":12985,"Ret":12986,"set":12987,"mÃ¡s":12988,"Men":12989,"atallas":12990,"ĠBilly":12991,"Ġprometido":12992,"Ġdignidad":12993,"ĠBang":12994,"ĠclÃ¡sicos":12995,"ĠDominicana":12996,"ĠmansiÃ³n":12997,"ĠGood":12998,"Ġpesca":12999,"ĠcomprensiÃ³n":13000,"ĠPop":13001,"Ġparticiparon":13002,"Ġcristiano":13003,"Ġregionales":13004,"Ġhallar":13005,"Ġacog":13006,"Ġmurieron":13007,"Ġelog":13008,"ĠMolina":13009,"icciones":13010,"restling":13011,"Ġsexto":13012,"Ġcarcajada":13013,"ĠDif":13014,"Ġascensor":13015,"Ã¡ter":13016,"Ã¡culos":13017,"ĠComple":13018,"Ġorganismos":13019,"Ġrar":13020,"Ġtesoro":13021,"mones":13022,"Ġsentencia":13023,"ĠClaudio":13024,"ĠOcta":13025,")\"":13026,"ĠIrÃ¡n":13027,"Ġcuadrados":13028,"lagro":13029,"ĠAquella":13030,"Ġhumanas":13031,"Ġarmados":13032,"ĠAirlines":13033,"ĠIngenierÃŃa":13034,"Ġazar":13035,"Ġtronco":13036,"ĠpaÃ±uelo":13037,"Ġcadenas":13038,"arles":13039,"ciona":13040,"ĠAcademy":13041,"Ġcortos":13042,"Ġintegrantes":13043,"ÃŃgeno":13044,"Ġfrecuente":13045,"Ġ1909":13046,"Ġsecreta":13047,"Ġlogrando":13048,"ĠDuque":13049,"Ġbebida":13050,"ĠStone":13051,"ĠHelena":13052,"ĠComp":13053,"ĠOlÃŃmpico":13054,"Ġcondesa":13055,"ĠGuinea":13056,"ĠBomb":13057,"Ġaroma":13058,"Ġadecuada":13059,"ĠOld":13060,"Ġcriado":13061,"Ġaudio":13062,"laban":13063,"Ġverle":13064,"Ġ125":13065,"ĠShi":13066,"Ġmiser":13067,"ĠrepÃºblica":13068,"Ġcono":13069,"Ġresbal":13070,"atorios":13071,"ĠÃ¡rabes":13072,"chÃ©":13073,"Ġarzobispo":13074,"rerÃŃa":13075,"ueba":13076,"ĠViejo":13077,"pÃŃa":13078,"Ġperiodistas":13079,"drich":13080,"Ġdivide":13081,"tega":13082,"ĠpantalÃ³n":13083,"millas":13084,"Ġepi":13085,"Ġcancel":13086,"Ġchimenea":13087,"ĠBrook":13088,"Ġatar":13089,"itarias":13090,"Ġ89":13091,"eira":13092,"ĠGales":13093,"ĠRelaciones":13094,"Ġtrama":13095,"ĠavanzÃ³":13096,"ĠSegura":13097,"Ġ1906":13098,"mico":13099,"Ġpoderosa":13100,"ĠBoca":13101,"ĠAtlanta":13102,"Ġviejas":13103,"Ġasim":13104,"Ġafecto":13105,"ĠPerman":13106,"ensas":13107,"Ã©lite":13108,"Ġestuvieran":13109,"Ġvelas":13110,"Ġpensa":13111,"ĠinstalaciÃ³n":13112,"ĠBul":13113,"ĠfantasÃŃa":13114,"Ġnegativa":13115,"ĠLuz":13116,"ĠmÃŃnima":13117,"ĠvÃ¡l":13118,"Ġnecesarios":13119,"ĠcapÃŃtulos":13120,"Ã³ricos":13121,"Ġexistentes":13122,"Ġseman":13123,"ionar":13124,"ĠKer":13125,"ST":13126,"ĠBall":13127,"Ġregistros":13128,"vios":13129,"Ġsufrimiento":13130,"Ġconceptos":13131,"med":13132,"ĠIch":13133,"ĠofrecÃŃa":13134,"ĠTran":13135,"Ġjazz":13136,"Ġvuelva":13137,"ĠAnthony":13138,"cosa":13139,"Ġnaturalmente":13140,"ĠAlrededor":13141,"Ġoportunidades":13142,"ĠVlad":13143,"ĠGrandes":13144,"rene":13145,"ĠenfrentÃ³":13146,"tillos":13147,"Ġsien":13148,"ĠcivilizaciÃ³n":13149,"ÃįTULO":13150,"MÃ©":13151,"ĠNad":13152,"Ġresistir":13153,"Ġesencia":13154,"jed":13155,"ija":13156,"Ġsupl":13157,"Ġalu":13158,"ĠMit":13159,"ĠrecepciÃ³n":13160,"itadas":13161,"Ġelectri":13162,"Ġechado":13163,"Ġsepa":13164,"ĠtÃŃpico":13165,"Archivo":13166,"Ġcomprado":13167,"ĠPrado":13168,"verso":13169,"Ġinterpretado":13170,"ĠWell":13171,"ĠfrunciÃ³":13172,"ĠTon":13173,"Ġdesagradable":13174,"Ġinteresa":13175,"trado":13176,"1981":13177,"PC":13178,"Ġimplica":13179,"Ġacusado":13180,"Ġprisionero":13181,"\"Â¿":13182,"iche":13183,"Ġnut":13184,"Ġenterrado":13185,"Ġmontar":13186,"organiz":13187,"ances":13188,"Eh":13189,"ĠColo":13190,"Ġguerrero":13191,"ĠMarruecos":13192,"Ġverdaderamente":13193,"Ġvisual":13194,"ĠNÃº":13195,"onial":13196,"Ġminas":13197,"ĠMateo":13198,"Ġdeportes":13199,"Ġayuntamiento":13200,"ĠelectrÃ³nica":13201,"Voy":13202,"Ġcomenzaba":13203,"Ġansiedad":13204,"ĠAlic":13205,"sur":13206,"Ġterraza":13207,"'(":13208,"Ġcasualidad":13209,"Ġcursos":13210,"ĠrecorriÃ³":13211,"'\",":13212,"Ġespar":13213,"Ġapoyar":13214,"Ġsep":13215,"ĠcrÃ¡neo":13216,"ĠImperial":13217,"Ġentregado":13218,"ree":13219,"Ġculmin":13220,"Ġfemin":13221,"doso":13222,"Ġrecopi":13223,"ĠEncyclopedia":13224,"Tor":13225,"dada":13226,"ĠSusan":13227,"ĠAsi":13228,"Ġgranja":13229,"Ġcortar":13230,"ĠreuniÃ³":13231,"Ġrealizadas":13232,"ĠMem":13233,"Ġrum":13234,"ĠautÃ©ntico":13235,"ĠLiteratura":13236,"ĠMara":13237,"ÏĦ":13238,"tit":13239,"ĠConserv":13240,"Ġduer":13241,"ĠEmpres":13242,"ĠSiglo":13243,"Ġcombatir":13244,"ĠResearch":13245,"umi":13246,"Ġcelda":13247,"Ġrostros":13248,"Ġdispone":13249,"culas":13250,"vard":13251,"ĠHis":13252,"Ġsoporte":13253,"Ġunido":13254,"Ġprovoca":13255,"ĠencargÃ³":13256,"ĠWik":13257,"Ġfalda":13258,"ĠpuÃ±o":13259,"ector":13260,"ĠJusto":13261,"ridas":13262,"incl":13263,"Ġrueda":13264,"Ġcable":13265,"Ġdejan":13266,"Ġber":13267,"Ġdivisiones":13268,"Ġtoque":13269,"Ġintim":13270,"Ġbesos":13271,"ĠpetrÃ³leo":13272,"ĠsimultÃ¡n":13273,"Ġmarcado":13274,"Ġdemonio":13275,"ĠLaur":13276,"cillo":13277,"Ġdelantero":13278,"ĠMÃ©ndez":13279,"Ġcolinas":13280,"Ġconforme":13281,"Ġvistas":13282,"Ġcampan":13283,"Ġalegro":13284,"aman":13285,"Ġdefinir":13286,"Ġurbana":13287,"SÃ©":13288,"ĠGru":13289,"Ġfati":13290,"ĠMet":13291,"ĠTurismo":13292,"ĠHidalgo":13293,"ĠinfanterÃŃa":13294,"lah":13295,"Ã³nimos":13296,"uevas":13297,"cente":13298,"ordon":13299,"Ġsatisfecho":13300,"Ġllegara":13301,"Ġcontento":13302,"ĠBautista":13303,"ĠCanciÃ³n":13304,"ĠCapital":13305,"Ġ!":13306,"ÏĤ":13307,"Ġ'-'":13308,"Ġmencionar":13309,"\"'.":13310,"ĠOviedo":13311,"ĠsÃºb":13312,"ĠSudamÃ©rica":13313,"esu":13314,"ĠAman":13315,"Ġocupada":13316,"ĠApenas":13317,"ÃŃficas":13318,"ĠRalph":13319,"Ġvisitante":13320,"ĠBella":13321,"Ġdirectora":13322,"ĠDerechos":13323,"ĠDiana":13324,"riba":13325,"Ġprimaria":13326,"Ġdesayuno":13327,"Ġinmensa":13328,"ĠNorm":13329,"ĠSemana":13330,"Ġtoneladas":13331,"Ġadquirir":13332,"ĠingenierÃŃa":13333,"ĠviajÃ³":13334,"Ġdesemboc":13335,"Ġtransfer":13336,"nacido":13337,"peta":13338,"ĠinclinaciÃ³n":13339,"chor":13340,"Ġ1907":13341,"ciende":13342,"ĠBest":13343,"ĠNicaragua":13344,"Ġchill":13345,"ĠCuenca":13346,"Ġlanzada":13347,"ĠriÃ³":13348,"ĠadmiraciÃ³n":13349,"Ġentien":13350,"ĠlÃ¡mpara":13351,"Ġfalso":13352,"CAPÃįTULO":13353,"ĠHur":13354,"ĠhelicÃ³p":13355,"gela":13356,"Ġparado":13357,"atales":13358,"ĠSitu":13359,"ĠdecoraciÃ³n":13360,"ĠseÃ±ala":13361,"colas":13362,"Ġestilos":13363,"cible":13364,"Ġresponde":13365,"vita":13366,"boz":13367,"Ġenfrente":13368,"Ġguardar":13369,"ĠInÃ©s":13370,"ĠdiecisÃ©is":13371,"uld":13372,"Ġempie":13373,"Ġescasa":13374,"Ġchal":13375,"Crees":13376,"camiento":13377,"Ġesenci":13378,"Ã¡mico":13379,"kÃŃn":13380,"Temp":13381,"ĠCob":13382,"Ġinmor":13383,"Ġhumedad":13384,"ĠÃļlti":13385,"Ġliterario":13386,"ĠcausÃ³":13387,"ĠinvitaciÃ³n":13388,"Ġfronteras":13389,"ĠdescribiÃ³":13390,"Ã¡ndoles":13391,"Ġherman":13392,"Ġcelebrado":13393,"Ġsupe":13394,"Ġfelices":13395,"Ap":13396,"ĠAcciÃ³n":13397,"Ġllamaban":13398,"Ã³nicos":13399,"ĠRepublic":13400,"reos":13401,"ĠescÃ¡ndalo":13402,"Ġsuprim":13403,"Ġbul":13404,"wich":13405,"Ġprocedimiento":13406,"ĠSyste":13407,"ĠcontemplÃ³":13408,"ĠServicios":13409,"anth":13410,"Ġcolocado":13411,"Ġ---":13412,"cks":13413,"Ġparada":13414,"Ġnaz":13415,"Ġpertenecientes":13416,"CuÃ¡ndo":13417,"Ġrestantes":13418,"Ġfurioso":13419,"Ġestabas":13420,"Ġarmado":13421,"ĠMoz":13422,"Ġvulgar":13423,"Ġempap":13424,"tencias":13425,"ĠelectrÃ³nico":13426,"ĠpÃŃ":13427,"Ġlevantado":13428,"Ġaline":13429,"ueltas":13430,"Ġvist":13431,"Ġtrage":13432,"Ġadministrativa":13433,"clas":13434,"ichi":13435,"ĠBelg":13436,"ĠRoland":13437,"lava":13438,"cante":13439,"Ġcubiertas":13440,"ĠProducciÃ³n":13441,"1979":13442,"Ġgenio":13443,"Ġbolso":13444,"Ġvaliente":13445,"ĠGermÃ¡n":13446,"itarra":13447,"ĠhectÃ¡":13448,"Ġlien":13449,"ĠcomprÃ³":13450,"rate":13451,"gelo":13452,"sterdam":13453,"ĠSici":13454,"Ġprior":13455,"Ġatro":13456,"ĠIsaac":13457,"ĠCÃ¡r":13458,"Ġproxim":13459,"ĠMorgan":13460,"ĠArgel":13461,"ĠelÃ©ctrico":13462,"Ġultra":13463,"asia":13464,"ĠBry":13465,"Ġarrodill":13466,"jec":13467,"Ġsuavidad":13468,"ĠBuda":13469,"ĠRamos":13470,"Ġoculta":13471,"ĠLiv":13472,"ĠParro":13473,"Ġfamosos":13474,"ĠAngeles":13475,"Ġpesos":13476,"Ġinclin":13477,"Ġanot":13478,"Ġdirecciones":13479,"Ġtapa":13480,"aval":13481,"centaje":13482,"ĠgruÃ±":13483,"Ġtribus":13484,"Ġescritora":13485,"Ġleyendo":13486,"Ġsed":13487,"Ġdij":13488,"Ġ1904":13489,"ĠGiovanni":13490,"ĠgrabÃ³":13491,"ĠAfr":13492,"ĠFol":13493,"ĠAN":13494,"Ġexager":13495,"Ġtaxi":13496,"Ġsignos":13497,"ĠMaestro":13498,"gentinos":13499,"Ġejercer":13500,"trales":13501,"iscal":13502,"Ġparticulares":13503,"versa":13504,"Ġordenado":13505,"Ġestrech":13506,"Ġatender":13507,"vens":13508,"Ġredac":13509,"ĠinspiraciÃ³n":13510,"ĠcoaliciÃ³n":13511,"QuizÃ¡":13512,"ĠUSA":13513,"oyo":13514,"abÃ³":13515,"pros":13516,"ĠBis":13517,"Ġinvas":13518,"Ġdisparar":13519,"Ġmaestra":13520,"ĠLibertadores":13521,"ĠdiÃ³cesis":13522,"Ã¡stima":13523,"Ġsop":13524,"ĠDigital":13525,"Ġmusulmanes":13526,"Ġestall":13527,"Ġcore":13528,"ĠOp":13529,"Lle":13530,"ĠMedellÃŃn":13531,"Ġartificial":13532,"Ġpilotos":13533,"Ġderrotar":13534,"culares":13535,"olution":13536,"ĠarquitectÃ³n":13537,"Ġsemillas":13538,"ciocho":13539,"Ġagencia":13540,"very":13541,"stein":13542,"ĠMate":13543,"Ġdelito":13544,"Ġbauti":13545,"itaron":13546,"Ġmostrado":13547,"Ġpion":13548,"\"',":13549,"ecÃ©":13550,"Ġhaberle":13551,"olviÃ³":13552,"ĠFir":13553,"ĠMiller":13554,"desde":13555,"ĠHip":13556,"ĠHein":13557,"ĠBull":13558,"Ġcoros":13559,"ĠArmen":13560,"iona":13561,"tures":13562,"Ġsabiendo":13563,"Ġdedica":13564,"ĠAlicante":13565,"Ġfiebre":13566,"ĠConf":13567,"ĠAdolfo":13568,"letic":13569,"ĠMam":13570,"cker":13571,"quillo":13572,"Ġadorn":13573,"Ġpredomin":13574,"ĠFueron":13575,"ĠmatemÃ¡ticas":13576,"Ġhablan":13577,"Ġgeneraciones":13578,"may":13579,"ĠCroacia":13580,"Ġcohe":13581,"ĠEc":13582,"ĠClaudia":13583,"xe":13584,"Ġlabio":13585,"Ġmaldito":13586,"isos":13587,"Ġdescendientes":13588,"Ġtocaba":13589,"abia":13590,"Ġreconoce":13591,"rick":13592,"ĠAlicia":13593,"eses":13594,"ĠAbra":13595,"Ġanciana":13596,"loyd":13597,"taje":13598,"Ġfom":13599,"ĠLittle":13600,"vial":13601,"icismo":13602,"Ġrig":13603,"ĠBow":13604,"Ġrepresentado":13605,"yente":13606,"ĠVig":13607,"ÃŃdas":13608,"ĠBM":13609,"Ġembarazada":13610,"ÅŁ":13611,"Ġindicar":13612,"Ġretom":13613,"Ġrodilla":13614,"ĠVarios":13615,"Ġcontando":13616,"zadas":13617,"ferente":13618,"Ġtorneos":13619,"ĠCarta":13620,"lao":13621,"ĠAutor":13622,"ĠTerri":13623,"alar":13624,"Ġracional":13625,"Ġdamas":13626,"Ġtrampa":13627,"Ġdelici":13628,"Ġfallecido":13629,"ĠcadÃ¡veres":13630,"Ġeconom":13631,"áĥ":13632,"Ġaseguro":13633,"Ġpresidencial":13634,"Ġelimin":13635,"Ġasociado":13636,"ĠElecciones":13637,"ĠAtletismo":13638,"ĠCrÃŃ":13639,"Ã³stico":13640,"ĠBruce":13641,"Ġchoc":13642,"Ġapartar":13643,"ĠtenÃŃamos":13644,"colate":13645,"ĠmÃ¡scara":13646,"ĠPraga":13647,"Ġrumores":13648,"media":13649,"bie":13650,"ĠLaguna":13651,"jÃ©":13652,"dora":13653,"Ġaprendizaje":13654,"ĠWayne":13655,"gena":13656,"tona":13657,"ĠJose":13658,"ĠcubriÃ³":13659,"ost":13660,"Esper":13661,"Ġinsectos":13662,"ĠIlust":13663,"ĠKas":13664,"Ġfirmado":13665,"Ġtrago":13666,"Ġveras":13667,"ĠSons":13668,"ĠVit":13669,"iesto":13670,"ceres":13671,"Ġaerona":13672,"ĠanimaciÃ³n":13673,"ĠFlandes":13674,"Ġmito":13675,"Ġsucesos":13676,"ĠWy":13677,"Ã¥":13678,"Ġdona":13679,"Ġdefine":13680,"Ġcaver":13681,"Ġlenta":13682,"Ġmiraban":13683,"Univers":13684,"vina":13685,"Ġviera":13686,"ĠÃ³rganos":13687,"Ġbatallas":13688,"ĠcrÃ¡ter":13689,"ĠCay":13690,"Ġvestida":13691,"posa":13692,"ĠfilÃ³sofo":13693,"Ġconvirtieron":13694,"Ġinfra":13695,"ĠbotÃ¡nico":13696,"Ġdorado":13697,"Ġextremadamente":13698,"Ġopiniones":13699,"ĠOrtiz":13700,"Ġfilm":13701,"inamente":13702,"Ġcumplido":13703,"ĠFantas":13704,"decÃŃa":13705,"Ġentor":13706,"day":13707,"Ġabundante":13708,"enia":13709,"ĠusÃ³":13710,"Ġgiro":13711,"Ġsaliva":13712,"Ġafuera":13713,"Ġbrig":13714,"ĠMix":13715,"ĠPersonaje":13716,"ĠMaxim":13717,"ĠMontes":13718,"tame":13719,"Ġamericana":13720,"Ġintegrado":13721,"ĠYuca":13722,"ĠextraÃ±os":13723,"ĠestÃ©n":13724,"ĠReparto":13725,"ĠErn":13726,"Ġdoscientos":13727,"ĠtraiciÃ³n":13728,"jalÃ¡":13729,"ĠrevelÃ³":13730,"Ġcreando":13731,"ĠCanarias":13732,"ĠOliv":13733,"CuÃ¡l":13734,"Ġbonito":13735,"BR":13736,"ĠautobÃºs":13737,"ĠfÃŃsicas":13738,"Ġequivocado":13739,"Ġnieto":13740,"Ġsuble":13741,"Ġentiende":13742,"ĠcumpleaÃ±os":13743,"jug":13744,"Ġhablaban":13745,"Ġalmas":13746,"Ġturismo":13747,"Ġpreca":13748,"monio":13749,"Ġcanadiense":13750,"ĠcampaÃ±as":13751,"ÃŃsimos":13752,"Ġmutu":13753,"Ġtemperaturas":13754,"dere":13755,"uston":13756,"Ã¶n":13757,"Ġcandidatos":13758,"Ġtemer":13759,"Ġescuchado":13760,"Ġagrad":13761,"PI":13762,"Ġfrutos":13763,"Ġpozo":13764,"Ð²":13765,"ĠWrestling":13766,"iat":13767,"ĠcÃŃrculos":13768,"Ġpermanece":13769,"Ġarroyo":13770,"Ġcica":13771,"ipo":13772,"ĠPodÃŃa":13773,"ĠBenito":13774,"ĠcarbÃ³n":13775,"lovaquia":13776,"ĠintÃ©rpre":13777,"Ġconduce":13778,"kan":13779,"Ġrelu":13780,"ĠMarte":13781,"Ġpublica":13782,"Ġparlament":13783,"ÃŃlica":13784,"ĠfotÃ³":13785,"ĠEmily":13786,"ĠsÃŃntomas":13787,"Ġirregular":13788,"Ġcuidadosamente":13789,"sson":13790,"Ġvulner":13791,"acre":13792,"Ġensayos":13793,"Go":13794,"ĠLake":13795,"Ġfina":13796,"Ġparal":13797,"ĠContra":13798,"Ġrodeaba":13799,"Ġparcial":13800,"piter":13801,"Ġcomunicaciones":13802,"mÃ©":13803,"Ġdesprecio":13804,"ÃŃnas":13805,"Ġtrayecto":13806,"clip":13807,"gÃ³n":13808,"Ã¨s":13809,"ĠMarsh":13810,"fle":13811,"Ġchina":13812,"lins":13813,"ĠFrie":13814,"siva":13815,"Ġelevada":13816,"ui":13817,"Ġcafe":13818,"ĠCampos":13819,"Ġrumor":13820,"Ġdespla":13821,"ĠconducÃŃa":13822,"Ġinfluencias":13823,"acos":13824,"Ġqueremos":13825,"Ġsuponer":13826,"Ġtocado":13827,"ĠProfesional":13828,"Ġpintores":13829,"acey":13830,"Ġcarreteras":13831,"Ġceb":13832,"Ġexplicaciones":13833,"Ġescuchando":13834,"jedrez":13835,"Ġhim":13836,"uts":13837,"ĠWhit":13838,"Ġbicicle":13839,"Ġmadri":13840,"Ġtestigos":13841,"cima":13842,"gregaciÃ³n":13843,"Ġexamen":13844,"ĠVall":13845,"onada":13846,"oros":13847,"ficado":13848,"Ġsugi":13849,"Ġindio":13850,"ĠJonathan":13851,"ĠEth":13852,"uble":13853,"Ġanuncio":13854,"Hz":13855,"Ġvariedades":13856,"ĠPelÃŃcula":13857,"ĠHombre":13858,"Ġguardi":13859,"ĠdormÃŃa":13860,"Ã§ois":13861,"Ġconmem":13862,"Ġinvisible":13863,"ĠbrasileÃ±o":13864,"Ġbote":13865,"xis":13866,"ĠhÃºmedo":13867,"Ġesperanzas":13868,"ĠPare":13869,"Ġfrun":13870,"Ġpresentaba":13871,"Ġsenador":13872,"ĠCual":13873,"Ġfalsa":13874,"Lib":13875,"kas":13876,"Ġnuca":13877,"ĠYour":13878,"ligencia":13879,"ĠMarc":13880,"Ġrenuncia":13881,"ĠcrÃŃmenes":13882,"Ġconstitucional":13883,"ĠPaula":13884,"Ġtaba":13885,"ĠgraduÃ³":13886,"Ġcolonias":13887,"Ġrup":13888,"ĠShin":13889,"Ġrobar":13890,"Cla":13891,"ĠInt":13892,"Mer":13893,"ĠCoruÃ±a":13894,"Ġsintiendo":13895,"Ġinvestigar":13896,"tografÃŃa":13897,"Ġmarina":13898,"ĠIllinois":13899,"Ġalba":13900,"iosas":13901,"Ġindig":13902,"Ġjura":13903,"Ġsaco":13904,"Ġfarma":13905,"ĠâĢĶÂ¡":13906,"ĠmolÃ©":13907,"cÃŃas":13908,"Ġreformas":13909,"Ġ700":13910,"deza":13911,"ladores":13912,"ĠPales":13913,"ĠreducciÃ³n":13914,"amante":13915,"ĠConferencia":13916,"ĠHart":13917,"Ġgros":13918,"acar":13919,"Ã©ri":13920,"izadas":13921,"taca":13922,"Ġduras":13923,"Ġsillas":13924,"parta":13925,"less":13926,"Ġbondad":13927,"dimos":13928,"ĠSat":13929,"Ġsever":13930,"Ġortodo":13931,"Sil":13932,"Ġdispositivo":13933,"Ġrutas":13934,"Ġradic":13935,"erba":13936,"imon":13937,"Ġprolong":13938,"ĠtendiÃ³":13939,"ĠFilosofÃŃa":13940,"utch":13941,"ĠcreciÃ³":13942,"Ġmantenerse":13943,"Sobre":13944,"Ġcobre":13945,"Ġ1890":13946,"Ob":13947,"Ã¡sticos":13948,"say":13949,"ĠEspecies":13950,"ĠsalÃŃan":13951,"Ã¯":13952,"ĠMallorca":13953,"ĠtemÃŃa":13954,"ffer":13955,"ĠTienes":13956,"Ġfuncionar":13957,"ĠcreÃŃdo":13958,"ĠCes":13959,"ĠIba":13960,"Ã©ricas":13961,"ĠcabaÃ±a":13962,"Ġemergencia":13963,"quetes":13964,"Ġvirus":13965,"ĠendÃ©mica":13966,"wick":13967,"Ġgall":13968,"acete":13969,"Ġmuralla":13970,"jante":13971,"âĢ¢":13972,"Ġdebilidad":13973,"Ġabol":13974,"rÃŃas":13975,"Ġarmada":13976,"ĠTrinidad":13977,"iloto":13978,"ĠCoronel":13979,"Ġjugaba":13980,"fectura":13981,"Ġllorando":13982,"Ġejemplar":13983,"Ġseparados":13984,"teado":13985,"Ġhacemos":13986,"Ġmisa":13987,"Ġacostumbrado":13988,"Â´":13989,"lymp":13990,"Ġotorgado":13991,"ĠElim":13992,"ĠGobernador":13993,"ĠDecreto":13994,"erales":13995,"ĠSecretarÃŃa":13996,"Ġtradiciones":13997,"fra":13998,"ĠOliver":13999,"Ïģ":14000,"Ġencarcel":14001,"orra":14002,"Ġchilena":14003,"Ġprevia":14004,"Ġsienta":14005,"drÃ³":14006,"igi":14007,"Ġtomo":14008,"ĠextraÃ±":14009,"ĠAlc":14010,"ĠPoder":14011,"poli":14012,"Ġcarbono":14013,"Ġllevo":14014,"Ġconservar":14015,"Ġnecesitan":14016,"geo":14017,"Ġpudiendo":14018,"dulo":14019,"ĠCara":14020,"ĠYan":14021,"Ġrescate":14022,"ĠBahÃŃa":14023,"ĠautomÃ³viles":14024,"ĠSea":14025,"ĠJulie":14026,"Escu":14027,"__":14028,"velaciÃ³n":14029,"quim":14030,"tuales":14031,"Ġexamin":14032,"Ġnativos":14033,"Ġdisputar":14034,"ĠRÃ©":14035,"sivo":14036,"ĠMoto":14037,"Ġreform":14038,"Ġblin":14039,"Ġsociedades":14040,"ĠJugador":14041,"lema":14042,"Ġinteresado":14043,"iw":14044,"ĠsostenÃŃa":14045,"Ġpanor":14046,"Ġescultor":14047,"entre":14048,"ĠThor":14049,"ĠBou":14050,"vill":14051,"Ġsepara":14052,"ĠaÃ©rea":14053,"Ġtranquiliz":14054,"ĠProyecto":14055,"Ġsanta":14056,"ĠAlbums":14057,"ĠDrag":14058,"ĠProbablemente":14059,"ĠcomprendÃŃa":14060,"Ġguarn":14061,"Ġlimitado":14062,"ĠleÃ³n":14063,"ĠFrance":14064,"ĠcatÃ³lico":14065,"ĠHir":14066,"Ġsupervis":14067,"chados":14068,"Ġator":14069,"Ġcondi":14070,"Ġnaval":14071,"ĠpÃ¡jaro":14072,"ĠFul":14073,"LE":14074,"Ġvolviera":14075,"Ġrecibieron":14076,"ĠvenÃŃan":14077,"ĠJournal":14078,"ĠHabÃŃan":14079,"Ġcristales":14080,"Ġcontrar":14081,"Ġconferencias":14082,"Ġabandono":14083,"Ġzan":14084,"ĠobligaciÃ³n":14085,"ĠhectÃ¡reas":14086,"Ġcelos":14087,"ĠpartÃŃculas":14088,"Ġatur":14089,"olla":14090,"Ġmasculinos":14091,"ĠDream":14092,"Ġglor":14093,"AB":14094,"ĠPronto":14095,"Ġrequis":14096,"cionados":14097,"ĠWel":14098,"peonato":14099,"Ġlord":14100,"Ġescalo":14101,"Ġdiarios":14102,"Ġdescal":14103,"âĢ¦\".":14104,"Ġermita":14105,"Ġnoventa":14106,"iew":14107,"Ġadquirido":14108,"Ġ1903":14109,"Ġdespierta":14110,"portes":14111,"Ġestatura":14112,"gramas":14113,"Ġempezando":14114,"Ġescen":14115,"Ġanfitri":14116,"Ġexpresar":14117,"dd":14118,"ĠFan":14119,"Ġprotesta":14120,"ĠBBC":14121,"ĠYucatÃ¡n":14122,"fano":14123,"Ġester":14124,"gran":14125,"Ġsecciones":14126,"preguntÃ©":14127,"ather":14128,"mund":14129,"ĠChristoph":14130,"box":14131,"Ġarroz":14132,"dig":14133,"Ġproporciona":14134,"ĠJor":14135,"ĠBelgrano":14136,"Ġlinter":14137,"Ã¡nsito":14138,"Ġrese":14139,"Ġhistoriadores":14140,"Ġternura":14141,"ĠNer":14142,"ĠAmor":14143,"ĠcÃ©lebre":14144,"Ġcontinental":14145,"imar":14146,"ĠBarrio":14147,"Ġpatri":14148,"ĠOrquesta":14149,"insistiÃ³":14150,"Ġlectores":14151,"Ġmarino":14152,"Ġresultar":14153,"Ġlejano":14154,"ĠjurisdicciÃ³n":14155,"lamiento":14156,"Ġpublicados":14157,"TI":14158,"Ġcercanos":14159,"Ġcoste":14160,"ness":14161,"Ġabarca":14162,"ĠDiputados":14163,"ĠPak":14164,"Ġacudir":14165,"ĠorganizÃ³":14166,"Ġfrecuentes":14167,"Ġpoetas":14168,"Ġcro":14169,"Ġposes":14170,"fice":14171,"ĠencendiÃ³":14172,"Ġencargo":14173,"Ġaur":14174,"Ġenfrentar":14175,
[...]
